{"tensorflowjs_models/spelling/weight_data":"IvosPCbURT7MR7c9X7xZvXQzwbz7uzo9T0NHPEFQoTvi1Xg+NSo0votzm72tuBA+RkvIPc1/Wr4lnJi9LnDAvTDuLj4Udg+9e4JFPlmVmD6aUyI9M7t0PsxfET6wnlQ+AtecPeXS9z2w9EK+XrIYPleHVz5yB4y9ith9vJAaer1Mx6O91ZY5vsS/PD4dyME9HjMkPkryiT43Vco95egRPkPsFj7grzC+tj95PjPJdL6sWE69ejc4Pg3JNL1T+4c9K0QyvaKj+73TQni+VFLAPdfrL751kII+QcIWvsrZtT2BsBm+ltolvgaIpDwS23M+N36cPOnNyL2D7ka+Z3QnPQ9HVT4Z2Iu9LPQmviC4Kr3oxxA+YqvxvVyeDr5lfag9BkomvrRSQr321UE+FzjPPbAVjT1oGgq+HwEaPqoSjb0c+ZS+msR8PU+JbD1R1G4+JusgvsvCA71NzzW+7QNKvp2XIL5HC4w9AS55PWsmIz7ALEm+kW/GveKfhz7ulBm+UbyuvUmTfz7kG0k9xP7VvK7PQj5FCGc9id8XPhRYOD7Zukg+N5TwPUZMdDyAOTM9n3gHPtWwyTwP7vy93u9tPSoEZD631o89ro9Cvp0MhDycIqo9GisQvlGRnT0F6Us+cmOlvIVIEL7GfSe+01/YvbSOBL5qo6Y9PrrvvQ7zCr4yRJi8yKoEvs1gST0mi/893Wv/vcBWrj12voq9xrb7PUX/07x0D8Y87PAsPk5mhz1fsrW9KSYPvY1glL38TxI+7ol5voTUurztvGC+UxXEPZiiV77QtUi+WjDOvXfCHz7Qn0Y+wUGDvbkC2b1PvGk+G8kAPfBgCb52eyq9paBqvTyF6Tqpi8U9rsIFPDv2N77t8US83yZBPbVlGL4fOkw90k18PtVxCD7APYM8436lvfjQZb2xOVK+kogXPSThAj4bBBC8zyJqPsr4ID7e2oM+dPAGPj+ITD69eUw9GJmEPaj4f72My8s9JC8DvrbsSj14p+899Xs0vru3sL2RIy4+w2nzvfnV+b1lAXO9+tBJPiS1nz3DmW8+TYiMPflLYz6a6YQ+znlXvaK7x7wanI+9h26EPb1xqb31gAU9giI8PbzzXT117Be+1VCrvePVFb7bKEw+cnqlvGNMFD70rR69JanWvVyyer21xXa+6cbAPVVDNb7+lFy+EYtavhUdnz01mv091BQ0vt1TTr7DaxQ+nHDavRbNMz6oFdI8f6UsPrF4yT1kT7k9ZIiHvZsPDL5OJ/2948IyPR4pYD2JOu+9ETdFvgO4FL6Imhi9i1O/PTjaQL5TLQe+0SLZPc2Ter2o88e7NNCxvbbXCr4+3Yc9ZyIlPhyTUbwkD3w+eC/bvTJLkTxeKW0+/84qvun+QL6Rwi4+fwkPvli5kr0xDlA+XrMEvm7zI7vGVBq9j+b+vWA2Wz4/MAC+qDrzvbrlzj3NNu493NFuPKrVoz1Bf8a9ttuovf0qFL6/Azk+NCPlvfsuX72gFU29iQgtvto6PD5jLBu+N4uMPCHLBD6oO+w9+S2HvC/GLT5ayB++4cwWPRaeOL5OHbc8SY0TvuThHj0avT4+59rWPXdL8718Yx68hVXpvXqLYj7EdyQ+0AIcPayFPL5pw2K+Ubn/PP6opb1l/5s9C3ogvlO94L0ubtY94CkyPlPNB75xEPs9QkkKPng9Gb3SZ7S9XzGAPTprnz2ud0+9XYC3vT17Eb7TtEI+envduw+4uD3YBQW+yHcCvlyUBz3E9C+71fI1PtTHxT3bFg+9/je2vaBsG74AKcS8hzBKPvSiHz5nwlk98mGIPJpxHzyH5F0+9cZJPozHS7uKRQm++HkcPrnhTD58Cr49akE3PgedtzzGs7c9owhBvfj+Rr6WHk0+XIMlvghzUT4N5UU+l0mtvP498D0+bwk9kEYEPnryJD1b8WA8kb4CvX8l670A/JI8frmsvSbLSD4YOZm9xuNTPlv3Bz7eBwO9HYcyvq8DkD10Xi483lzSvbbKi7yQwhQ+5GpAvnhFzb3pY/U9Fq/nvSxtJb2N616+JuWJvQy0Hj61GxI+qKU/Put2PD4Ok1C9fZcXPhqEAz7Q6cW9+GUsvtPFuT3uV9K9JBAEPnR/mj2H0t89f+00PrbworwmObC8ShGjvYq3Tj1WewU9MVezPav3p73QWyu+NkbFvTnhPL6+3zk+x/rbvNrXHL4oivU9BbngPFOGQD7G2i8+OzxVvQ7dBz7G7zM+SMiiuzORkT2HdaK8OFkOPqYNJ76ToT8+ovxqPaF15jzVl2a9pud9u4z0br46qxy9X72EveE0Gb4zxUA9HRgyvoILoj0ibjU+sZxiPkZxnjw/zqI9Wk3SvWTb6ry/Joc8PsamvfCjsj0VdRS+nInDPFLIRb4Nxok9SNZQvmNpvb38CyQ+NPkqPS6F8D2pY448iTyQvKME/70RJk4+oHwfvfjRtrsfw7q96B84PofmBj7qh6u9oF/cPR79eT1mKEC8ocJvPTmQOD7sU2Q9501VPkqyGr5ihDO9YnHBvfl4ZL2zy4I+2WpUPqmTZL2HLNC8Tb9RPuzx1Lyx7gS+6BPjPQNSNb5SWly9LpM2vk8rZD4m3wM+lIK9OpJycT0qax88FAxRPe5MsL1l3QA+U/ocPjiwx7zDj8u9L6MKvozZjz158Rq9ciYovrkBSD3TWZ+9jnohvKGaFb1fhDm9JSfivLSqUb6tIFC8VFdOPlqz072Ewgm+KxWCPbVJd71FWUk+pAUMPjnaiD1B/L2994qCvT3hJD48vve9LeDVPeRhPry01hi+JHLTvWc1vD0nI0s+9RV5PkKIE74jLKu9SFvfvB18Pz46/Si+vhrOPWahLr4FAn49mPtyO6YibT2+Pc28EIv1PZDx9Tx+iMA9CmNPvm1Tnz3qN948aQUYPYkBMr5uRXq8R4LePMm2Vbs7JEo+5us1vJfnA7678xu+hdNYvUG4WD0RB2S90UETvh5Wwz2SL7o9gn5LPt/jP74E/wK+JxJGvpqIOb5kczo+TsdMPS8Zir14CCO9xe4Jvgy74z2TFeo968WEPST4EL6H4gg+w3rIPETncT1uH7G9BwTpvS7vBj7Fr509hZcOPiQGK73ftx+935GkPBG8eL1/UlA+JOowPdh2tT3jdAm+KrgPPELJNz4eSQA+yXjuPfD49r0NBlA+GcEUPliZuDx6rs49NSVLPn2zuDy/8qe83atRPkzqRz5Zy9k9t+5xPebQ87zjLCM+unzmPbuOCb6+MBM+ZWwtPs/Q0b3SjTm7SiBIvouTZz0Me5O88l+rPasd6r17dCs+uQVXPu72gTuIWww9wsplvBGTUr6F99699TxWvnwfNT3Jdew8W/PYPFbzwL3+FdI7jLgbPhluuru3JKQ8qqN3Pve7972wE8M9pL/fvYKooD1r9Ek9UQXBvcZPSD6dEk48jdsvvv6HIj5tYG4+MX0MvgGDjr384ew9K3slul/NHT7MgSy+RXaSvUFLyz0Gchu94ewIPpWZqb2JuTi+KThUvXTwRD1lcwk+lXAhPkxK0b27pYM9CkmVvbvdDT4C7xi+0m5CPkuFQT5Mdf89MDdGuwkZojxfZAe+eD03vqKwJz5lYTE+BdnbPNt10LxUMhE9LsxkPd+oYT5i/m29dnJLvro2KT57Vq698gsvOp8N47zX8Si+s14lPsXmt7yLYQU+ycF6PaQcQT5u28i9O42nvQXR4r2z3Re+y1mFPbOorb2/Rmy91jEcPbNE7j3WDDU+4rIRvsj9xL2UIeQ9JIpLvR1tL700TeO9PSehvbxjZTyAjjC+i6OQvefXA73R8Sk9As0MviqOEr6lsBQ+DGfHvN04uj1jhNE9lGmdPdBS/D3Mfz++OtUEva+t1j3xyeQ9cIUJvt6Ysz3GEiW+SDCVvFYTFD63Zgi+H0cLPoVAuL1Xlk89xV/hu+BysL0N9um9CpC+vPvVCL7eeVo8x3D3vDf5+j01oCW+jYuavaEahL08xD++QLwyvvnWFL5vKZ+9dieMPVWihz2rBDM+zjgcPoG3yTtqsRs+tAZdPXZuMb6psHw9lABFvXg2zL3I9Bw+P4FuPbFGOr1N6y++7IprvSYWLz5TkRC+SGcGPo7jzj0+RJq960cAvshzE76WBVU+dbtjvXHYtr1JNiO9Hv21vWAKIz4BTzI+GbcmPq1Cgb2EBxG+VWjtPTDEVL5/ejU+l4/XPTJlUj5iXx2+yq/VvT9sRj7hogm+cAUWPXmi3r2IAxe99+7HvZMMbb2VHok9CIebvLhXS73sUcc98GmbPG1KyD0jZJc9VXooPquJRz4G6NA975NtPSW/VDxW8fS9f09TPSLNGj7oqjI+au9YPgnmoTzmGhc+hCvovaDcLT7fz2U+1YlvPfXGM75f38u9AZ0hPhBXBr789xG9/+UOuhBMBD0mJRM++mW9vTGcE740gsy9yABAvrR+Kr4yHVo+NFQVvhRDmbwxw6A6SyKyvegtJL6zElI+X0NoPXWtiz1EWtQ9gLGQvI8RDr58j609hM4UPTp/IDycZxG+moMfvkprT753hQi+6e1Cuzqb5r1NZS0+uTLKPPS4Fr1bxiG+KAY1PrkBerwb2Di+U2+DPfRUCj5X0P685MwQvrzYOT6eNgE+DmdLvkIuLr746p09m3gIPWejtr36oxY9B3PuPXXzMz6UYi0+CqA1vXTMCbyYW2s9u8VYvHLCkjzgWBY+yPH7PffTHT4dyQi+Zg6qPXtfNT5+cTQ9i738PWIrFz7aHBQ+P5srPgLxOD495fI9HGeNPQbdjL1w8I+9H/MrPWfwOr4OP0U8FWwLPl8G/r0pSRi7pghAPYG22b28Qti8m86HPY/CjL0/0J491H6fO/2pND7JMza9PP0Yvjmhqjw8Y0w+BFhpPgbN2b3cgYK8HKJNvXbDMT18GeW79MXUPTaPwz1fiIo9cK8kvjbFOT4aPTW+l9A8vbgf8D11wQe95kaSvUVSFj5xn7o9caQ0Pj2kHj63TUo+r5gFPosgFL6ORP09VwaJPenqAz6zViS9KqW9PclAnD1K5F+87V0PPuS8CL1TgAy+0VIAPt1fIb63XVC9lWwmvnP4ST5+DHE+iL8sPuSptzwJETa+FmwlPCLfrjskMIa9J/79Pasv6bxxUDY9kn+9vZc3CTwXuLG9TocxvqNrK76NfQ4+f4McPr3uUT24LYI8/inIvQ+aP70A+es9jR24vOMoHb6RPqI7u8OlvZrRILwaQhy9kIMAPTYoBb7tb+i6ytzJvML+Qr0XzgQ+oGnRPZBpv73WoDg+D2kwvpBGC77H6Q6+B3WFPXEQbT6s8Tw+zYuxPThh372cfxi+d0TRvI8ijD3U+xI+an8RPkx95j3CuSS+683oPX7FyL1Dz9y9YoANvkVLXz6lWL69zKHIOxoiLz0aJG87IfY1vvHI9T0Dl+o9ftWovV5LRT2vHo+9Thu+PcBwer1fgT0+vxSFPeyMmb2nMxk+luMkvgBNL74/+xM+qRZiPZ3IHj52NhQ9JGYjPlOrK71dzE8+CxDRPUDeRb0/swa+s2WcvXH/FD55nhA+C84Fvhso6T3gOwI9/QQAvbBVGL2+aSA+vLlIPkPvIT61KVY9aDYXvlxDMj4iuP89oUWKPVi8Yz27cmQ9gkhcPk9AbT1wWFA9LwYKPXfjcL0gHFO90LPTvdj3LL6FL2a7k+UYPiyr2zxyHw4+Kf4UPb/gkD18doA9JusGPt4SID6qXbk6Gfl4PAGv1TyQBRc+wz5lPVYI8D2UWHc9xLJqvUXxMD4RxSW+M3U1PlqZCL7kUvQ81BJxPXVjEL4SbQi+41tKPjTLBr47rwm+o6pgPtX7Oz4NqcM9tQ9yPYG7ML09ySW9JV8jvlyToL19lEw+WSKoPSxjAT4iOFc9SSY4Pr3hzryhQQ+857c5voCIhL3y9CW+6dkkPn7WVj0+Yoq97QGnvXF8Cj6p9+Q9pWVtvU9gE74rBB2+AIjTvUHYYD3xFWU9nvInPsLCaD0038o9WJlSvc7dzz0TP0K81BKUvYsCHz7scDo+MLIVviL02D3Ydfo8G5Etvtn93b26ExA7DjS+vdSFir1BdJA86QzPvai0Cr4NMVI+LZYJPjGYyD3LRxq+5AbTvR+G3j0A/kg+ixohPm5d9T1ljT2+Zw60PAuD/bzoEqQ9A2vAPeqoPTyWuk4+1wYhvri+kbyJE6a4odABvn9stL08OhM+6DCCvZfKCD4WwwE9cqxfvRuWPT5AYQ4+7TOhPULIML7nzgQ9YHMvvUHuXL02T5s8tHXWvWo5UD4+PDs+Wj4YPLJMsTsriiq+h84zvUtBOL4MIcg9Egg9PtmJtr0iGwO9I+2yvAqODL7ux649iE/ZvDk3Bj7dTty9xHsdPf469zyShvu9LwUGvsqWI76lLxc+XLlAPgIQQT7L6rk8uCp3udABMzzn/W+712jAu2vGab1gDcC9NLw3PgVXLb5G9rK9ENUoPm9sqj3i5kK+g5ThvfVVlDzGhNo8D4oJvmtUxT1AMxe8u9a9vbhA3zxO3969Hq7dPfrT7L1KISg8tQDzvO9k+Dy/1/g8p9xsPgHqBT7sHZu9c8QnPZyeEz6EfLI9zvQvvV7YKL79iCo+coj6vXABFb5VHkS8O8orvq+EGj4+PPk9DvhkvauTu72fRRs+EDUFvlvIMT4q2rW8G9IkvZW9d7sN/6i9ymI0vYYjKD7Aqhq4/OQsPLS7Ib0tdO69lG57vZsCqz3NMxE9Eb0bvt65FT5bIh0+b8oIPsb1QT7NPLW9BH83vtfWzT2rKUW8uLCpvRpp6j0fVKW9N5sbPvZwmr0hMeA9WcouviO9fb39mkc+GDoevgw9Cj6vjDU+ctIAvonxFr2l6yI+jPYgPoaIIT5IBw++aCo2vhIadz01ASC9rpiMvHIVET4sNCW+G/nnOwa+sDwkzOM9qD4HPns+4j1MEzy+ztTuvMZxE77xmAo+p4fgu+revz3CoIG7mU5DvYQRPr6UZ9U9JL7tvJYYQr6XnbK96cGFPU+29zzRDLS9TRcRvm9LmbwgCfE9YFXlPW1m2DxFCHA9ZIrwPQXl67xrmRY9j7mfPDlmiD2qAsm9RS3zvY/jPz404Ry+T5BxvXkNGr717ma8kBQyvk47f71d4Rc9Dhcmvu9u3b0uT0m+ito2vcCgAj6mjo471KIkPnZm8z3geq89PEUhPj7birwrN8S9Cfs7PWnkHr7t9NM9bx04Pa30aj5OqPG9qzEbPukgPTzoVZu9WZEDvontkj3XAlI+OIg7PuaXzz2wg3w9WM6VPUm7nbwTZAW+QuLzu0x1A76OFkQ9zAAEPlb2yD2soyO+dX+CPHXpEb0D4Qs+bI/AvDazNL7BSL+91+qQvf3Z9L1CnhS+PpQdPs0iZj2GwRe91VW5PZ40cj1OGcY9+hpNval89L0UtiY9V19Hvr/bnj1G9/U9F6TsvYf1t72JZCW+YIv0PVp4br4iRUY+mfqnvaUNkzvgZTE+cCEmvvPzwLyYFFA+6DO5PU3NPT6Ypze+yTLzPHY1uT2l6N694tGJvA7gXz1MNwi+41HuvJapL749hhW+GUySPAUHAj2Scb29RbxDPuqAAL7aqK49PiEevnwKED5sYRs+ijySvfpY5D2FcdQ9DPJCvbVbEb5aCEQ+iF9FvkY8N75N/Bi+ZbsMvvYaED5Cff+9IRgxPYN6MDwsx3+9gtCdO+mUSj5AIxo9HO1RPadHLb6aNss9mv+7vHAf7zvpboA762bDPegh9zzEPBY+SMcAPu81KL2zlSi9Ma+Avf4LFj17d/M9dgeXPNdDqb3D9nm82dw6PJeJYr1hT4A9EYXBveFzIb0ibo69bu23PQ2h0D1Oqbg93nfePdhYVT4ZFgW+liFKPb5Iu70qDKY9/8gZvr5Tu7rpuva9tEhMPh2mH76hia88AT0xvu+JBD7GBms6MqeqPXfeGL0jjJS9lV2PvfgoA74s1vk9IVIYvoi/Nz0lMti9Neg7PozSEjxdIVI+8rTMPfxzRzxRVtO9QZm4Pak4FD7OxBg+UCw1PnU8HD0psh0+SbnpPdZe/j113lc9ITicve76W73noJ287IuLPSBV/j1sVl09+5owvHQQ7Tz+nhw+mGC3vCHvbL1/FaC9gZYyPidp/j0xcQq9IQ4aPg0IujzV4O69OuXlPZ01iD2B4wq+yIWUvcvkaD0fML88eIJ7PaxK7r0FKiQ91HDmPYydSb0vZM69bD2xvcTNM75BjAI8R7FiPiR10T0KRho+sPE1Ply2tT1x/4q9M8V5PLENGr2TWgq+KnUOvir9pL34miy9/vAMPj1aHD7oxii+Lgonvl2Gkb2uf5I9btsiviPbB77Of/k9rOk0PoWNJr6ZaNq9o8fZvM+D6T0IJC0+XuAZOwP78L1f2Rq+UErdPS+JWT5WKCM+oGAFvYY0Hr5vvY+9M1zIPau98zu5mh8+HB7Dvd6WB77kBSC+qWOhPRwmir12eGK+QsV6PRzsyL1lj8+9lDtmPV1Snj1W5LY8Ncn0vXU2n7xRtY48KTaaPRgYEj5hEAC+5Yg3Pb/Nz7wchVq9fKnwOw5tyLxwdzE+vK44vjKfED2BAqq7QCiaPe7wgD06SQa+EaB/vW1Gr70QERI+axLcPX/esr1nJyq9LOAivmfR5D0clsW9h2r3PO8d/z27BEu+Q16bvRU2LT5+toy9Vd2uPb1mSj4a3/C7XsQ/PhB/q71s6Ec+ECEUvSeC4T1yI06+3g2FvW+D2r3zcri9hQYyvm5qsT3bFgG+T1kiPvynQr4cXO+916XtvGBPkjzUfOM9f1afPdNlW71blG28Ndf/vW4yPTxr9S4+mGskPrCkwb0JD6a7sZ//PUGaKr7GJgA+KOOgvdVADD4zYAW9VocAvgd+6L25da69U64UvhC5Lz7w9Yg98/oEvTuyBj423B6+hgt8vWvGjD3s1so9sg6pPULSMz43wJW8h9eXPcOcjr1wTU0+8XTTPfXXRbzayMc9/O+DPdHcxrvXKpo8LYoJPiRCXj3ekjQ+AT2DPVviib0u7DM+H8Y6u10bET4CQAm8SXpwvAgTxjwhnFe7HEoovmKoMT7m5R0+lKsLvqVJKr4S4y0+7LEHvky0wzzBOw891mDNPTNdwj3BKYS9YsUzPlG/fjseIxy+kpEsPly1Pz2HVt+9O+M7Pdo3ub3SoxA+u4kXPjeogL2X5do8OFsMPERJLL50nUo98ODdvJHCaL24dUK+12I4PhtwAj6D9Z493ErFvDb7Pz3ySAe8mNinPXq3Ab56plC+1O0dPZxEmb2SJfs9dsDKPcOfNT5f72o+VDymuyIpij3E/AQ+eAHQPQwwIj4Abt+9XY8AvldMkLtFTIS824jJPYNm5z1mgme+8RzrPcvCnz3xfyo8EqAcvVXzPD4opMq94JUjPkN8j73Rj7k9MzbAvYgPT74gjjW84EPlPFrc/D26PPy996usPR9dgT3+zTU+lV4CvrzONry0wDC+0xmIPX4BN76VigC+2NrmPREoIT5XrN48LUYYvltJ+DwNkeE9glw3PuxpW73I+Vg9Mm/nvZ0LXj5Jsss8qcolPveksrygJjA94FhlPRNYkj0Bj8E9KTkZPj61/r3sI4O9kT5QPndDAz0au1S9ms+nvXKPrb1XTIe8x8ISvau2Kb0YtCE94a0NvXmoLr3I2B09poeiPcGz8r2WDz6+ZSkZvLs8E75lCQC9/m1WvYlEnLwIcbk7GpATPqpGBTzh4hC93EEQPkvHRj6HZwA+SuvpPTG7+r3/ude8DeRxO7oa4zy5c7M9mvxgPKwizDydevS8KL0gPipn5715MrS96ObWuwb7przkMm29Kb8YPrUo570eW7Q8nBg2PmK0Hb3jhZS9vgIOvcnSCb1+KXC9Fd9FO1S0Ub4HXmW9ilW6PeKINT6oZz2+e5lfPYOasj0//tG9ZbEyPvwyFD4mKgI+cZievVr8Aj7bqNy9Dk/MvTZpUz4SYCI+hS7mvFntJr6eGS2+cyYUvuxuhj3sT6i8xjj1vLJhHL55QXk9MfarPTA6Pz6IsZG99hjkPTayAD5Gkhw9na7FPaoSCz5BcU0+2M52PSvqajyFTt89ZTFAvpbaNj57G508vj1KPkb8Gj7hok29u09xPSWoRD6JjOw7Gba+PY5zKj7BjUu9YxBGvVvqFT4WSF0+YgQtvqIGLb6W8Ve+U1o3vfngF74cK5c9INCAPUv7HLyOIhW+vxL6vRQc3z2Gcy0+KYLQPcy7YT5DLi0+SA8PvmDenT0ghge+EP9cPhGOKD53Ca88G84oviooCT16J4u97ncqPiIEsT0KeRU9L2rRPe+uqz3yJSq+03xnvWw+DL5H5Qa+Vu6rPTYJJr4+NQO+lChqvGY0sz0rKYe9GrUQvrgZOb6xNiM9zn9fPjEcdj2Z71s8TQwrPnJAJL2A8yy8LG+VuxpSGD567A++L24kvgueA77BGi2+iDUKvLNGHL6PPSm+ErkfvoKevz2X7J+9KWUEPdiX3D3CCpG8Qi6RvYEQRD2jsXE8kAIkvdZd4b3/Xko+BMuPvU+vJT2ECRa+aObTvaKqNL7IxBQ+jBEuvSQBH729dBU9wbnzPWJ4lLwD9Fg9m5ovO3I05D3XDBo+reohPZQqVT7l7mc+dWclPoqJprw7lTe+GbNMPuCh9735thG+F0Z4PE0P6z2t+P098LTlvdzrUj2f6eU9du0tvllFvD2xBow9l5YovVI+DL7UAEY+fCixPLAk970mUpa9xU/BvWccPD6UVE69kbSVPMdIsr0wwNa9sjxAPpXVST7ay2W+KwEZPoo/ub3QmxI+sqWrvQ8TLL2JDI49IKbPPeYTGjw6Ehk9CJlYPqkWJD2/pAg+n7aIPaticD7WsPa9+FICvoSnhT0zwDo+J+rKvCyDxrtcJAM8pE+wPJGpuT0ZGqg9jm48vk73rD00S/G7BtsEvlLjLz4Pxhu9SUJrPhpEHT4OSI89lb7+vcxhwj252Cu+/mtnvPByub29ZA++d385Pi/FBz0VZzi+3Zgvvoyftj3waSu+tjYWvR1IwTzZQIg9sXVdvZdK7b0O99y9bNsRvoryvD0XLII9QRj6Pc9xPj60Y7m9LxhNPg3gHz6lfwU92BkavssGD70bA7k9qGujvRmsfb0HMTY+f0PRPKeksr0SJJg9i3QsPEcvcD2krlg9wwAtPaPT+bw0dWk6XwIdPPD8rb0oagu9uD4SvVgRIb7UyMC9FGBrvdKt/r3mbPS9aQRrvU/2d7kUNwu+trHEvcAggjykQBw+aXGAveetRb1pQCY9m6Y8vcm/BT7Vux49C6RIvjq1zLxzd808sW6HvS3F3L27Kos8mw8SvlST8T0XGi49FiSYvcaBn70zbge+HC/avfK76r0UNiS+tDs0vAWsd72xp4g9ZtEHPQ1jdr1ZPug9uJhUPUVt47tL0EU+0pTwvZGhrTxeswi+uSvJPLbvIj7fJTm9L1N1PWswzL0a+Lq9trLpvOQEqTykoym8bP+8vOzxWzvZBD4+q+oSPrnsuD1LLAi++8vEPaWXHT3wdLi95mfSPEUWvb1T3BA+DowWvrkz1bw8JgW+fvuavUTguj2dhNA7oxoZvR5SJT7mX1s9ujz9PNpgnr0JDh2+HKkrvczuqL0TpA8+nIncPaCRrb3+3BU+pfwtPaQ8jz3SnBY9ukvgvcbFsT3rhoe8CbXMPbIqHD508JW9RA71vXL5PL2KG9i91XqNvGyRurxqq5S9RcAFvSNM/LzKXAu8a8GovZB05L160nW9fs03vlJF8z1fA9c9IiQJvqYWAb7+vfG9OWrGPASLz708PxM+ZJtIPoG/GT2pi6M8M0VcO4PrNr7BTIq9yujFvZVCsr3KcyA9R/8Fvk2NKz1AEZm9HKtOvnh2672fJfo9LWXbPbNNEb7HiSG+FCs3vBq9LD44QTI+dzJRPU9Dmz0oExS+R4ccvg1Swb25Cfe9CYz0vRrNCb4NRNs92QFivSTLKT585ek9YTINO81Maz2yNmu9U+P2vLfwYj34Iva9Y4pPPC1MAr55Tmu9VVYEvsKtwL169AA+MUe5PFn1BL6YHCg+yVGQvTnPuj0YC0Q+GkfuPZy0Mr31kFM+e9B2O5+fQ73EZno9CGAdPg8kxz3BJJk9VrwRPnmi7bulCK49Nb0ovmk8Kb7ZLlg9itYwvpZPVL4vZoY9N9e9vCFRSjz2Bjg+HFOYPWdVLj6xjtQ9x1HZvUIVgb2+dKM9BwknPjthK70JySq9zB00vSgR6T0B+Ds+e9kWvj47jj2qvSs+y0LVPRYhzj3lPva7w4w6vjv41T1GDvI9IzqzPf2Jp708qGs+GnTnvOoEE76Jjqu9qcgIvfXESb5N5tC9x6mAPVpg5j2xrig+qDgXvnhykbyPc0+7AUUlPi6QBL5Zpjy93RoEvg4eIT4CHLM9YaGMvOkQgj0ll9293LAHvaZfNb5V6I463s2pvZoIHr0uLBa+76k4Pg1lBr4g75W9hPs5vYnNXb17EAe+KnZIPhlwar1Qc0A+Ydi5vWEmLz4lK528iPyrvOwgOT4ndAa7OSYDPZJpcj0JtjA+FzHQvUhU1728k0g9egG0vb4cGj6BOTO+F8gyPrTn0j2difk9OiNIPo1RnL0bt8I96rHkPfZRCj51c1C+59IHPh6lxj02GSC+YVW6vNfLJj5l6r29LiMsPo4LO726Uma+CVRyvbGfyT0kYiO+gFNlPhfVEz6C8ZE8VcsMvnwRkL22cqs955zGPGoDEz7iFR++yjUtPoE5kTxI+889gaC1PS5RMT0SvPo8UuU8vol4Xj3N7gC9vCcSPlN3aT2AaQm++4CVPI1Z+rs0/Ge9H4ILvQM49b0xY8s9cvdZPDGIMr5udi++B+dJPgDfTT2E/+g8J4NAvtGvUr7K7Cg9A+YTPuOgjD0Enp+993c8vjyvPTzCSYU9GycPvv3RFT6wijc+8usOvu7pG77B8Ts8FIUNPuvscT0qVMe95wMtPd3TqD0ubK49znAMPjCRPz7yCjO+k/qevRLwwz132Ke9UnmCvcBN/D3NYNI9htEAPhNo4DjJ6da9jcngu1lQlj03Jd28+r7JPQ3z0j0jiPU8t5uXPcEPpj3+7T69pJDIPKx1Bb6qwAy9eq0OPqRrjj26shM9szNRPYkeKT6+TQk+R8VCvu2/ND7vGSq+76RQPqs9zL02u9K9nbQwvkGTqzy1GiS+9u8ePgPErD3MMP29XAkVPvqBJT5vjRU9HUl+vSO+6D1eBG29pPzJPScEgj1+A509zFCLPCU1E77seyO+CQtpPWoKLD7dJM076U8RvshuHb2x+xe+9f+sPCOKwb2RN7y7I0j+vUfmXz5zt969tnLtvdiZSTutKC2+tEUxPa4Xar26vNs7Gng4PpB5CL7e02y94hZUvV3PBj3+Z6U9Ho2PvXY1HbukQg++bAlFPnksEb1d9QS+/sXVPCuw1z1Psyw+NAwhPlQDKj7dbUs9MpXnPUzwqD0yhCk+IUIkvj7cKD4ahXC9KyhKvb5LOz4bV4o9b7FevnNjFrxZTi89ug5HvdnPv70CVkQ9rt+KPKlENT5aW2y8Apk4vV0F3r1GIVE9RpXIPJNpBj4UxEE+bmMZvjEdGT0XJSY+1Cj9PQrhPr66hTs+jdVHvHjzqLyjuB4+IdGmPZ5EFT15i/O9j05CvvLGsT05Oj29Yl0oPklJ0D3jxSe9LAQsvWZ8ij3EzPI9/cAvPsDITb4RRS4+zorovbfHEj4PMBK+/lgUvjH6lb2vHv28aRGxPQJVwr1V8SQ817KqvID717022pq9jTu1Pb1yND53VDS+2XjFPAuFFLzRhd09ODAqvhw9n73tLQ2+GZ4MvS4KhT2Ey6Y9DEy4PZ0/770tPSY+ChqtvQa6Pr4t08M9imIBvDChKb1b0UE+EkUvPjfOQ75VBe080E8MvkWrIL4PZGC92NtHPa8pFb59OK89wPrzPPsApr1yTSW+XgnYvTi0Or7Jgg2+bAYEvkxEBjyEwhi+jwQ2PSr1Nj64cSG+7zFNPbAxNLwUzoY8W8eiPVTARz2C+RM+i3fzvaTDID2ys2O9F88PPaiNBD3IgBk+vD0uvu65g708lqI9KR9VvO/sgr2M3Wu9rOHoPR9K9rwGLM09MAdgPvfa373rkeA9VSndvHjyrTzbA0E+GK4QOzTcnL08FQG8dUw1PjzESr5Fy0E+vJTbveb6rz3CtO090nmjvRkHd7vNEqI9SEOyPIcUOT0d9wm+fWXMPeqzHj6hBLg9rBUlvqIzBD6wuk0+x4NGPA0aCb4b9hS9qT4PvnaAyj3dkv+99MDaPS+LL7698547mgaAvGkPsT1mvJK9w+0pPuUCDz27Xfo9sZt8PQdJw72wtS094Z0QvowJbT1Tshy9k4EGPutRc70BGj4+OS3JvW1mnb0DXJC966E0Pt5GLD7T//O8yBDfu4Bx271H2w4+WRxpOpgI4z2BHW68XAqIvfoKCz7eoca9r1VgPeg5273Q5zI+gr5qvdw3db17Ack9gBibPcQFLL5FWr29uIECPrcyBj7KrO25rHpCvfG9IL55rQI9Vue2vHcw0L3D4EK+WfbEvRxmUr75Wp698CUaPoRfFz2kPLK7YMUBPix/FD5nWqC9EqhPu1el0r1gYSG9+a6GvQ/gqj268QS9Q6JEPldQMj4lHOm9xPwJvWKaFT7sbAO+rM6cvQSH37z2m9C90YT1PU793DxDogY+5oIbvVTbTr4MLEY9bDkiPujY9D1o7IO98S0Hvq7N4D2Yb+E94+IcPoU+iT20QgG+x9wLPl5IJD4Oj369yjr3O5kZebzWsSQ7npIuviw9AL021CM+Sm33PAQdezy7tJg9A9M/PgvIDj7QECk+b6DXvVWg4L2c8b+9+lgHvtFs5j20lhK+GwOTvWQijT0CdQ2+Ga46PixvGr5835E7ZPf7PYFV7zwDUeU9o9Eovq11Az3uQwK+RdadvSkGDb1PHb66tvQJPkQ8eT1+bUM8dHDgvXSOmrx4awC+dnNrPWH1oj2QyV09vnDnvMYZ2D3G3749iX0WPpBpPL6Vqre8NHASvQyvND75wWm9M3YyPt7GJj06ASo+DsLwPen1471TTzc+LLZFvUjnTT7Nq06+doeovdcjfT07Swe+pZkfPn8CHD4C6CQ83JjjPLd/x73HQhW+pB48O3loEb7/9gi7xSyxPXlhAT7yY9w8z8oavuYNKr7OKu296qqFPcgSVD6hf1y+Pv7yvQ3NqD1H7io9+yT6PRnYKr4gss29avGcvZsXOzxI3UO+3uEfPs6sRj6B8jQ+zfvHPQHapb2gcys+vWIDvj/17r2zlUM9sxDZvUhbRD5k6t29XZoYvnyAIT5ziCU+aFbFu33WBD21T1s9c+QvPhbdqj25xyu+bOsyPNi4jD2VwL+9L3DpvSyvC76r5EU+SiBwvhfs9DxD/B8+TomTu/frH7zROng8/UQHPuSsVb7oPmM9zCtKPQRI1TyHncE91d+gPWsMOrwfjqM9ACJ/vbe5AD2EwA+9fIMWPixPGz5x/h0+OXcmPcbb6z0TWzk+5JILvlx/Bb7vWjq+TIGAve8bdr2kzho+o1YFPnVhKL5FAYq9o8Ecvn9C9DwPuyi9jT9fPHU9Tb44Uzk9CZJIvpr2qD2E3CC+MH+gvbeAEb1dG0S9WrOjO8GsVb5k2DM+910jPh4TEb4CSyW+uWPTvdabqj0bRJM9/4g4vt67Rj5yE648XW9gPqw4lLw1Q7u9Yq90PStJfD1X3wy+/TEqPlV8gL0GekS99/PZvMsrLT6Z1qC9df9Lvu3Hmjty3ya+NVrzO+AXV71SNZG9NX9xPaqwCD7NuxS+wk82PkSeoDzRrQE+R0cGPRzEJb6zT0a9YQVmvAakqz0NBDk+ZdaDPM7TAb0MDZe92MvpvD6/Rj50lpC8FF5pvhoCQz4ZMY27OMtnvVmFAj6Ge9q9UB0OvkOkdb0FZw4+Y8hKPhswwz3xl5C9vJi2PTKjer1nPZy8VeX5ver65r3uiUM+oIADvdk52LmXBiS9ft6RvcCTrr0wIlc81gVvPePZjT2NWOO9Yp6mPQlPr73Ntvq9TiHZvZnbNj5SEPe90KlMvhsBB74vc9y97e4wPk6VxD07mDa9264fPqC6+zxFqLO7CGiEvZgHTz4oQQi9mj/gvWSWG7yW50G+TMgoPlTDTLt5nXY68/jUvNlDyr0H1+29M53XvMsls73wM0a+hKwlPmXK0r1x7B+9qwpPvv+hPj4Elzs+pyncPXYSTD3ho6i9uOakvc2ecL4Sm+W9cpCuvNlBkjytDsY9QdOavV+YzL2T5oS9DMnCvbtjOr2MAma9ZtcjvaI21L1OHgk9llmcPeS4OL7VsRS+mKwlPl7kMz5SiJo8V/yGvdtNsTwX0xI+XbxVPkzURj6iMEY9xaqcPSo6lrw0YnI9kiXcPasb/z3a2eM9oO0bPjIaWL2EXQe+z2rJvUx4KrzemQa+Ym1wvZyJIr4fxZY9JzpfvvHtgL0bmrq92avaPdipG777urE7MPfLPRHSs7zbabk92Rw/vuN53T3fDxK9yoAXPiqhGr6PEy8+XUcsvo6xFz7m5aK8oQHdPWYO7D318669SOWRPRLxoLwb+Pi9yCiAPXdWBT7/oMa8k1lFveA+RL2x/Ds+K03uu3vTTL5k5V08hXW3PTR2dz2JyXO9Brq0vCCsEz1P8vg91nM7PR1diT3dNso9qG30PCd1Ir6x2xq9jjxJPSWNNT4/uvC9lWcHvX3kML4bnEM+UNH1vRpzOj0zKv29i+H4PaF8Ij6um+Q7MlpJPftEIb69HjS+AOTlvcIQsTzgXkK+5w4KvhHIDb5c5f08uRQtPlefWz4DQDq7Lac4PvId/j3FykA+P+BUPWeOwz1yH5m9FR+4vd9YBz75P0U+6IeMPa9JbL47orc9F16rPfxoZ75PDmK9UdsmPRO+jLwi/AC9x3wVvguDtj3oCLW9EQ0cvjclxz0smUy8MJ3YvGubEL5VRSc+QJluvFCf/r0G/Fw9zG6JPDEpFb7cUeQ75BAFPk/YAz4HIxY+R5wRvtQHRj3ynM49MMzlPBJCJ748S0w++YOivUWiYr35Thk9akQavtaLLz4hwMm8Rr2lvWlAKj7r0PU9o2CNOSl91r09Qh2+KiX1PYikWL7NvpQ8iQcAPuE/FL6hEtG9mu/svIlK+z3un0Q+ML/mvVSmqL1G+Nk6DlnWvdJ8fj3shuY9vGUOvh5/H71ZCCW89NegvQRMwj1rDuS836RLvqmT/72FRkm+efBJvkTroD3mVPA7362/vVikjb0hutw95+WJPTGuQz5Ih7c9PVmvPdjS2r1s6h4+3XG5vVYGUT5jFy2+l1sTPuGa8L2ZiQ0+ZMGvvSaBLz79aNQ8DbIOvrbjgLutaSU+UobNPbA/Tz2sswu+lxkqvhR3Hj72llg+AtJlPhXjkz0B/oS8HrcAvpN9Nr4trN680jsjPQKJlj2tD9O9iVsZPl1GoD2ao0091XoRPXhoeL1MulC+xHGVvbzMYDxv5XM98BY2vVelYT4JGNa9CIIkvpmTHD7aV+S9eoc4PhfUFT3oaq+9sfIZvngBAb0JS8c9NftFPnlJML5J1DY+oCSzvbOzE77kyjG+ZE9KPlnhLT7KbvY9ET49PvmHnL1BqmQ9R/U9PlyqEL4CtE89eNcUPnJE7r3y24W9tuhlveuZIb7XGMq9UUoevvC5Hr7hDBq9enwvPjdEAT5qYmO9HmuiPMuvQz2Lrg4+7zavvfb80bsBptc8FX/XPfNlJD5TLyI+KFMAPboUWLwUtk2+tvOoPfvIorz/TC8+CM6XupMlLz51cAG9gM3BPH4ARj5U9R68nZAEPo6cNj7vazg+VT0tvu6qHD5BdSm+tBCvPY6p3DsM1Uc7GlaHPGqJI764pPs8w4TkvX0XX72BGiO+xHsOvke8NT777Uu8Yv8SvWJep71EC0e+wqn3vGIC1T2mSt29RDxJvfzt6L3GsRI+8LUvvsA/0b1AXpk9CIrxvSDjR75w6oK8Q1J9PLtFkbwVAjA9DYMjvsvHUj1GDiC+ZdnevSoqGT71Iyo+1jMuvqIOH75xuQK+dtJBvknuzr3goxm9dNcRvkLEXDz3jaq9eaRYvfD3sz2VUbO9JIUiPKlkmjxi7wU91cHQPbr/d70Dmg++aSw0Psrsyb1zKR2+hOA6PinXhb3mSgu+9h4mPklWJr0tN3A9uvEAPiEjQr6dgTq+6uwevPFLCD2sLhK9XlzaPTziTj2ZMPW9BEZcvfK+Jj4UiWQ9UmNEPtFtzr1LZ669vQAOPgOq4T1Dbp08/6wwvWWHXDwjdfE9pqEWvnrRhD1YLv89+r3ivRKLLD7BUZi9yL4APh6uCz72qK+9D+yWPP6T9r21trA9SYcTvQoNYj1J/SW+0ruaOwa7mbwpo8g9mdgNPTOGNT7nkQk+E8covuYR9zyJmU08GjNZvQE8Uz6suiG+EtU0vhKzFL79TfY8OylGPcb05T0Ltm89XLbmvZspGT1WNxI+beHhvfv0Kb5BuHI9c6smPlR0zb3MLEY+EJCzvSUPEL3kDF68n3XsvNKVL72j2IY7HzXzPAMgojsZYO+98ClGPTW6eztUEFg9nh4kvsWFNj53v+u9UikCvnhBhT2++7G6rOikPTqNIj3CsKs9J6UjvnsTJz33YJI9tVIPvjvBvzwxEk4+FnwOvhjtOz5eSOa9cRT4vQ191b1Fuds9p+6bvaH26L2Xziy9CGqNPeJ6Ab6gOSU+/rb2u9/Ber1qc1U9IllHPWylsr2TPTW97EOrvap3LL73ZBo9cu5EPu3ZGD6AYma97th9vcsjrzw0ODE+XRmbvWnvRb4CmS69kGqgvWQ66rujcwi+tu3jvW/dub0tBec9jAxaPt8im72jXg4+kP/uvMYgDz1gdre9PznbPasd8jwRowc+mcfavfIJED5E1OO9q9DNPVo2hL3tdaq9BYGEvhDxIz3UE/u9rg4FPj18EL4NKaM9CHKpvYTuIL5sbpq9wfMOvQGR6r1biSq+u65Qvnztqz2aN4o94Dr+vZQ/nj2ongK+7rQqPm7ppbmi3d+7ebwRPkJ8TT5/rx89FdLJvcTUlb1szzm+L73POykm9Lyk4Eo+byjHPVqcp72KPVW9kbkzPoh/CT5HVA4+fLpmvqkV/73KMEm9SsZvvd2IOr4TgR2+en4MvhJS2L3Q8oa85Y/Nvax+67w8uGI++LL6PS9HFz6l4oo9EmQnPgo5OT6KJby9Wd48vcFiBr699IO9QdOzPSYmBL2/W7e9yGslPh5G/DtA7A8+wnyxvV/YIr5yAtC9OG4MPuA2ID51bza+ydWzvIpJRbskYRm+dh4vvq9EvTyb0j69D7dAvpCOBz37ZgE9zqKaPAdINL4Tx969JnoOvtCMfz5hEA0+jbzDPWOfCD4+HOq9KVVMPp/yjD3XOks+AbfdPOFTsL2oPoC9DV2DvECDzr1tK+i9I6RzPcV8pT39rxW+tJETvmnZGzsx0zY9NEEivmRNQb41qmG9FoIMvdkzGr5quB2+TbLHvTM/9T3l88O9JgfBPadg+r0XOhs9U6khPTDzRb2Vwye9mC8kvqnP6T03UQS+ypZKvlPuGT0/lEA+CdNdvWY82D3aI+q7V/+vvavtCzou/zS+AJrLPf+Iyz1GbUA+WVonvnrx9j3QtXS9LhnIPWKfBr6gJDm900ThPIPuTL6lrUa+NLeuveTUyrxuk0s+tgPavd47Pz7O/A++KRfkvaS0d71M3Nk9V/8XPkV/UD6G2RE9K3bMvVgViD3qdbe9YJ8tPlErHb6qJU492eXxPFN0rj3kGB2+NZQNPmQ3U73G2je9VC+YvCqRW70nXfy9ilYuvvTZoL2rras9cjbQvVp0Wz2HZ829sPMHOtGJRb5LGw++VNqyPYUVVL6AJve9zVfCvRFIGL4BoBE+7j+pvTDV77rPtSO+moUGPjCGCT7z0ze+tnQDvbyXDL4dx+A9vc80vFSRoD3JKFU+ehEpPgIMpDw5Zs49SIQnPt2OnLxi0ZG9MclWPp2VsD0NNSO+VRMnPtDsHb4yZZ680Z9DvbIdlT0miUA+7JWTvQZ6pz0lqC69kWqJPWHmjz3Efoa98NcbvaVH2j2Q80g9SGEAvqjI7z2J5JK9x2cJvv48Bz5hmzY8r0pGPer7Oj6QN5W9484oPTWfYr6g9/c9ghQpPmEEqz2VNx4+wNk4PoyzsD1S36o8mDIRu9cNVb6meR08Evi1vLsp0r2tI4q982MmPsYk17wuHiO9B3I3Poz4zD0sAYc9JPDJPeZ4FD6yyDC+DvbrvHeiiL1VbCa+7FaCvYYTAb4U1H08fvDDPWgngD0aiqU9qeQVPi83tL1GNja+aj5Ivgc/qz1zf00+yoxkvJrmDr3tW0i9dTNtPYXKDD4PThO+vLUtvaT2dL3Gdha+m0Y9vqzbGL4cyMa7C2IEPtOtz716AAm8Xw7jvY3KIb0VXde9gwQjPXwLZT0g/jm9ooj1vb1FBT76oBA+mnAWvRDT7r16Cyc+hiNWvm16773hoUu+lXwivvVilj1Htro9pjm5PZHCsrx3CV+9IMcqvlrHTD3iZRw827XFPMtU7728iCs9pVz2PXTTMz6sUDo919knPo9zBb6Fgw49w/sQvpYOuzmtiFC+sWSuvT+6FT7CnTS+HmVovt9Q+L2OBx0+oTErPgLRQb36Ep47EXQxPOAVrL1ldiw+1gvGvXq2Az4mGBi+uLMSPdhZnb0ZC+U6HflOvAVzbr2LD8A9rf4tPp9Aqb02kgM+M9Y3vr7+Bb64aGe9AIBCPnqQF74t+x++PEwkvhmGUjyOUte96KEKPgn3RD2IBIi9e5skPgWwY71yg1O++vIHvuaomj2+FgW+DKSmvaoqcT2DI8q9/IE4va5ROjwGCAo+Kgc4vV7oBz1blh0+40zlPIEf8ryrq0w+l4Yfvf2r8jzPage+w1+9PboXRD7GNwW+dCFMPoxSQ71y0PG8EOPLu9xSHr4dOmc99BXgPevMRz6mdk++BsACPsMbUbun/QQ+uvOrPCNdMj54A2+6unDnPTwopr2n17e9h6oDPgK5D74azAE+D+wDPi9Dc708/EC+YZtAPoGmgro3fPu93ezrPP1+sr0nG5g96xo3ve2TXzyPLVW+CTE0vn/+TrwIaz8+XFFEPkVAH74eqSQ+WAzovcHtcz17E0M+u980PVxuKj6l41I8TNXuPG4/ob0VMVE+5xc9PnSnEj7I8Uq6CYAovsDviTzQ0aG90Ca1PSQ7R76rdzi+qbMoPJ5kFL6yGQY+RyPKvewIMb5aiTS+GnZ7POuXHj6OEKI90rxtPeKq5z1KBJs9p9WdPT+VWr5aqWk9YW2+vbxmqTvvwdi9grB+u6lRPb52WaK95YcbPh3zRr7DXt49JklJvioVgj25VJ29ZpUHPmMeSj6f04c9YP1GvZoI9jw9vjy9HMkMPpPGZj2p2V49HOgSPpab5b2BIC4+9xWdPXTfn7w7//m971pVOzIN3b17zi0+0ucHPcQ3+zzmKMC9sW2TOuftpr0pbtA9+ckDPvwABD0e5Ie9f2dCvvzx/byBZSu9iiv9PYpdB77GRPE8m0k1Phwhuj2SQEC8e1OIPc5SAj63LDW+e8ccvkJz6b3rC6I9NKsAPqGFND4PSQe+2g/5PNGsuD0+mne9MIKrPLJgUb1OWpi9x6gUvk6D6j3Hgmy+XWUfvmp7GzyS9yQ9NNkgvhxJ0D2JcRQ+Bi6TPPkp2r33VrE9U1sIPrgQmz2NGao86hbYPVwc4Tw4UYa9MJ5Eval7JD24v+K98hmJvBvOCD4uQvG9MvIQPoi8Dr7WLu49uVQBPs5Am71FckA+gQI8PXgBGr6pXR+9U1ebPVliHL1jhCM+avLEuwFItT2JJJy7esFJveH0XTu6Olw+IlJOvilVnr25wUi6oqz5PGr7Yb0bnBs+/ikWPlWsMr58NKa8eDBbvbZzML7HapM9BiakPeXMvLwCuwY+D//qvVlrDL7txM09Ui1BvaXOpT0Il709JvQGvo9rJj57WTQ9UBJFvmvGlr24gzk+hS3qPH2UqbwuvMe96M4VPkCbiD15Zjq++ejEvdSJMz6VhAG+7EaFvSLIJLz5XFi8qlwdvsBLPL5iema9S1RUPpfPwr09ayQ+pqykO1dAFj1I3MO89U6HPVZtLD47lqs8AUc3vm/nIL6MRNo8KiTsPBW32j1GiSW+KqNnuwxNqD1RSbq94opjPRGrWr2vhVy+bmNSPaeUAT7BGdI95NY1PkGbvj2tfg89hT4IPkMqGr0cN5E9oOfGPSQSJ77grgc9WrKRvZlIM75ddxk+WS0RPlZX671iDqU9BXA4vl3jXjxMB0O9jDPSPbiQFrsPShs+7PknvshvLDwA3pM9Oy5hvS8cqL2Iy669JGu6PQZqpD0nyZQ9USKPvDazAj1U+5+9RGG9PSRDaT22GE+9eaZDvlpYmj0vL7O9LpizPQwhbb5xjDC+fx5CvrKAKD1OeB0+to1LuxBuIT646DA+WcEiPFVmP74SClS9UWc1O/+0gTxXA7O9+s6CvVFdIz6tl3a94N75vR9kCz3gz+I9/M9cPq7hIj5VAFi+NK8kvrhs2z3Ctgw+gMwRvi0jVzyfUw4+vAIOvoGe5b0lvGk8UtYaPa0xCj6RErY6vZ0YvWgdxj2hanu9IkyDPcUH273zG7E6j6LIPJsmKT6ZLRu+HZHdve90qr0uxKk9aD1BvoAaE7xyvK09rgf9vQKd2D2TzJw9FUsUPlN6ar79y4e9gVFpPRTy67r30p89EnlYPdHtBz5qsZ884gWSvfFfGT5cNmY9GAk2vWepOD6s5oO9pPTCPRbecrzYkGk8RkgrPkPFHr0X8hm+7vYQPik+y73FUhu+JBBYvSlXUr4GHvK9cPIDvmBrCT2tFcA9vG1jPR5yxr2gISa+laBWPUw2j7xNFxq+L5N0vbdcNz5V2xI+grOZvQFPFj3D38u9YC4xvg7HQz7smyQ+dxkvvcX4+L2VCdg9cbkiPcEROLwgnKM9cl4BvgKvHj7V47Q88rntve9lmL3aXzU+pn0HvY/Q97xKnR89CAtXvhPA+D1b4407dWqYvbfWGb4eHfS9CEYlPDzarDwSBCC+hPgAvgjcU75uBV4+QSyMPQfJbT0p6Yc9VtZ5PQXy0D1qbpK9U8oCPnKohL3LFTQ8WH8nvqw4S75beMq9qBH3vRNdyD2VFMO9tH/IvRSjJz6CIYK9vGJQPuw9Dj0PqDI9GhE6vpiGUr28PNG9gFk7PvoeIz6sRh6+EgH8vWoB6T1bo7e9TzuCO8nsp73kLx2+4dvivBSnkTu+ksa93a2qvWiPPT19hUS++3+3vYpa77xuKbe5vNNFPvGjJT55JqM9/+U3vjnn4L0qsUk+LeksPqNSIT4V9UG+MpkmvoCdGL6HUSK+19FpvU9msr24slC+xiZcvtpnVD4r+fw7Vjf6vQDXfj3m0xo+X97RvfdxlD1R/Q0+GgbMPVAjt73DEHW9PO74PQtVHL5iMB2+QrzkvNG4m7u58TO+zml/PWPOKr5LCTW+dWT2PRJHOz4F6QU+XoyYPTyUAb3u2K89adtEPHiZDT71XwW+XIKfvT+hjL25ffe9eIGTPaOJ/L0oWms9tbbqvTcQtTtnlpA9e/+QvdPYJr28a2U9pyopPgel6z3fVQ4+X8Gdvau44rt5r6C7w3aIvdVTNj0smM+9O871vfhqoz0QLFO+BK8zvWWxib3d95e8i+mTvVSazr3Vc1492MzyuZwAuL0ld4e9+WkZPrlDvryjAQU+1imhvQTzB75SRZ07yHL/PSb6mD3c7DK+B/tUvcrgl72sCJY9FLBLPgKPuz0v1ww+aeq7vb2OET6vAPE9j3Q0OocA2T3HVDe+x0AUvvRPsL2AFw8+Dr0tvkkhXT3Gvym+ud6fPUxYHj7Opl692EvSPe941T0fiBg+TKp4PXl19D12yCa+EAvWPVr8ar0PCR2+rdxTPj3IJb2M9GM+hVodvt/qGz6WUCe+zlfnOytyOb5FK14+ynjSvRnaqLy8Q5y9aLQYPqIugj2gqiI+lYRjvgUDnT1cVS2+4x5zPWJu/Doqswi+3idmvcuMsjyVne692RXmumZwsj1DJC0+FH6WvVgt672dCC69sJd0Ps/d8r0bvsM8FJxwPSKdyrxom3s8URRPvt0ZBb4xH+m9QsMAvgd0Fz3Y57W9QqkLvm9YP773qly+gHeIvdeX6D3yu6O9R85tvdr2Ib5bbc49kzYsvi0+2z0mblk97N1UPfVjHr4aRt49pIMLvjoEXz1x/k69IloKvkBIPz6YX5S7MDkcvjD6hzzIeXS8z6aiPUjblD2fQxu+DU8jPiYpmb3spkU9AvosPjjvM728A/Q9ExKfPC8xc70mD6W9uxgaPhMghD1d9Uk+MJYVvtH1Kz5wzxO97Nf1vRqsmT1xYJC98YHZvV7H/L1YjUs+RyOIvabxCD5PpoM9KpAgvfirGb27qNO9juCWve6TKz65IGw9b88dvSWcY70fEwc+RdiiPAqxKL07ZgG+kB1OvvBCBD5Lwh+9eyyYPQjtL71+YHQ+OvbkvVbQ7z3LKty9RH8wvoaUHj5lAJ28SUYZPaBQCD4atxs9PUZmPbFrAD433hG+LdQVvb21JD1tSMs9D+QKvtDwP76cLYO94qzWvRSWnj2tHMY9ppA5viEhtL2qHi++MyVTvf5DEj7XPOI9Qz8ZPtXaN76f8ji+urSVvUSN1T2Z1qQ9rh7dPOeHur398xy+15Q6Oxs/+T28KcA7qe0GvoHMzzuGmsY974W/PUadqr1/fBC9gp+KvKDxKL66MQo+Xai1PYi9Tj6WGCw9tJGaPJ0ERb7wKK27jDMmvgXqzr2UiOg7cAjVvWREGj4M8yq9X/mfvUQ63b1daj4+FJaEvFhY1z2nHR4+SII7u159pD2nfz0+f6W1vVhSVD5rmzI7xHUXPm+xRL6PuyY7Zt8IPmcWHz4w/xM+Xz0sPuCLCr2zKWS9lSo6PlBLur2nuhI+n4DvvPUTVz27tD29Ph5XvPLEvbw4Q8o9i02/vYtqYL4t+LQ9eUoVvJ/GO75R51+9esBdvWX9kT3ucqC9/EUavUA4Jj0FJSu9DYAivkVV/j3alu29cHj+vdl0HT6nFWS+m7fOvbsAcb3BbYs90tkhPIE1LL7EA609vVm+PbyPVz6Sckq86/1svczZ6T1Ogos9iicVPv42CT6OoMu9GheZPUMoBD5n43e9rd6QPXVnLL5sOVI+GnHEvXL5Oj7Igi894X1evvtdTb2wOG09n/X0PerMwL0oL807MJP0vdqDSjzcx+u9/18mvm+bAjz0VAE+l3mpPQL8J77rDpo9ed11PSbLIL6wLO+7PrG+PRJ55j32ZRO8E9S9vPHOgTyq2Au+hvmKPWLtmjw9Awc94r0XPs15Dz5PdwC+g0n3vcReIj23eBc+Vpokvjj2Vb6pzvW8KPThvcfYlj02jJg9YnMyvRxSID4Qk9y9DMBdvduCRr6ymY89u+m4PMcgHT476Fc9Ei09vrcvCr5W+ic+SjqavSo6jjwWXxi+G+4NvleneL0wNSK+qd9rPU64aD2SORO+13NAvlSrT70+kkA+JOSRPYMoxj1UdNg9wlY1vn3CkD1pogy+32nQve9clj1+Kiw+q3M7vXKbHT4YNzu+b/wmPhI6Jb5KdIO82rtvvbNArTyn/0W+nS05viVFYT4+bYI7XlM1Pg3yLr6txLS8CraHvA/ePj26Mzc+PkhCvGKVMj3kvvq9OVVKPZNfFz4mEJg9KgKAvDPvwLxz9CA+GNPdvDUPULsO4uG9xOpAvQu7Wr0FBgA+1LBdPvIXU71z8a09zxijPb4Igj17kgw74hKYPL4gj72F3XS9/BQivYBkDz59ess9Oh8oPk5g7r0N+M+7CewAvaeCLr41ajw+2Mz1vbnKLj3hOuQ9R7KbvGurlD3pKOA9COnYPaWaDb5lZI67kbUwvtb+HT7HUKa8kAuevU2yK773fry9TvvmPX7LMr2qWoS8pQ0hvuoUAr6nXfU8tdhGvgAVsD0JpRk+G5rQvJNlyz0nBRU9zcXVPR0E370dFbu9nwm1PQan171r7B++6sELPvMAYbyoHIY9LFkVviWhyb0E8Si+0NnbOLkoPT5b0gU+gABKvbRQ970KCUK+wDguPvaGcLv2Zc+9C+gCPlxdND4DhOW9ImLFvYqEu7wCU2a8k+MfvYEMjr0muNq8ikAbPiCV3L32ucQ8XRgIPmvdLT5ANcs9P8stvUmjpr3KekG9FD/6PSEHBD2gopY9qzgpvhID/b2jMbq96is8utEpsL3f7za96esBvrNxGryaKZi9JD7bPXWVYbvuqyY+HS4GPQkDnD036h++TlrtPAIFsrzyQdq9pnVTPjP1DL7MQL89syB2vMaL5b1hl4C97FD7PLmNBD6Sjg2+HT0/PUcBNb4qFUi+vWkaPh9/BL5FzSG99ihFvkYLqb2wxbq9WraXPPpmLT1O1c69lGwyPL1hNL74+uA9FZ6JvHb3mD2A0Q++7UgVvSqiej0gPoK95Va6vLDbQD0MRok9iBLkvRa7Uz7oi+u9oh6IvW9RrL0P8ps9aWswPmPilT0B+1S9ac1vPMUkPbzJ1Py9sRsSPsTDnD1VnFG8FE9mPfybAT6HIoW97NGhPelXtz0z6Bq9Pe5kvgfQ1T3JwVM9GbucvUFo/zy6DQQ9xeAQPtiZrD2Gei6+Unh0vbQ5Or70bA69oHAvvjZrTb6gwDa+GCQdPrQCPT44NHW9fhmSvNs6Ob6nHv49FeZ+PU0K6b3qhyo+3WgQvgmQhD360w2+ATmavTx2rz1PCzs+scksvtdPAL4mj0U+tt7oPZCtnby1h+e9OjibPd/b/T1bMv29OMB0PkuJQj2AGTE+Qw7HvTxuTz5miy2+C+0hPnjMBT0OydW9qmdFvlZf1rzCZA09kLHvPUdVAD4e/ha+pmy2vSHDDr7lwpg9ftiVvZ9DgD2+Hj8+fJUlPjQ6E77Y7eE8yQ5Xvvgdiz2AkTw9wb5cPQJprb0dw5c992rlO3d5vDvGhYk9FA/CvUTKPD4MGws+vaOKvQoYUjwtb0i+4tAnPuTBBL7phIY910iRPcDBXr37qIE5rpYEPbcTD75pSFS93WiVPcH4eL3wxgK+gmIZviMp3j1eHRs9k8cZvlX9QL7nz269kEgmPtSwO77/no29m4BlvUhbAL7leXa973UIviIvDD7eTRw+UlT8PV/T8r3vbBw8yr4yvf6Rnz3A0E29TKarvYunpz28/fe9ORoQPj8jFj0Imw2+dkQOPXcJM76mh5C9cRwrvjKOrL2v+T4+tQQ+PvQnzz0s9oe7PAzJvbxopD1fKhO+ft3Wveo1jrzrjjI+PcvAPRT6NT43gAU+i4ysvYN8qr14gQC9oDQoPpKai7v5M3k8ZiYOPglmJ72NWbM9iiycvWzgFj4FcQK+ib03vs9JJz20ucI8fTgHvlTdB755CSu+gN3sPXR3hz11TBs+9Rf3PRLLy7yQf1u8N8L8PQSrGb4+sXC7vUq2PSnGM73OigM9cpgcPvC9AL0CQ+o7CY8xvnQacL3S/Nm9zW1bPkacgL0RY849w0y8PNnYSj3dig89/kxmvZBQEL4F1RM9agz4PaPYPb4zliG+hw3NvcR/9r318hy+Pqzdvbye/T1mgnu8oQccvkehGr6ft4m9b/iLPQpElDzkonc8Dg8/Poz4Lj3N0Re+IUACPt/7HT7lO8K9EywyviCOQb6uyoy9A2Q4vmNXXr20bS++UQh3vYEaKL4KtB8+Q5RovXVXEz6ekNq9gib2vVpxnr3zMea9/k9ovmwTFT7jqPW9vDVgPgJWFj70KQk+EZXYPSDZP71ceiC+FToPvq/2WD7yE8c8f+fPPes//D3czra995xzPW7nE74XMSq+HcXuvdyhFz6eKMa9pm8+vpK1jr00kCQ+WUQwPuq7NL4yUgy+ym5PPnA0gz1Vuxw+85y/PUMw7j0oH/k9zASbux6NTb7Mpq28+6OoPEh4tr2Q+bY818e5PWW/F76Q5Ke96VSCvHEeOr4lHZm9l9sgvSei172+Jk093mREvkZjH74LH6G9dr4kvmZ9mjzUUiG+gYpcvWhxBD4rmji+z3CBvVtbRj2T1dW9C8QovqZGFb6lPjg+xZQuPvAIAjzH7wM9J8VVO7NHKL7sHxY+hp6lvXwNsz3Xfxu+mbIDPtDkqr1R5Zi9AR3dvUasBb78p5a8DjRZPV8ZUD6u1/09RUInviwdjzxzL489T+/XPU2FLD7kuI29q7PEvTtA47wqi8O9oEoIvt37er3bo/c9Tkz9vYc3f73/Nw++ktUgPT9VGL7vlxs+Oz4CPvJcBb3ZxcU9wIczvmmKEj0Fy2+9kMCGPAtMJT0Xm8k8/WjDvbZCAj4367Y9owoovqn1Cj65exI+dLQuvjgSOb2aN2q9qTJEPq2SBr4MRfC9RNsIPv3uCL4TZyo+Czhrva/e0z1Pb0C+GRVAPH/7rj14b+m9q7OTPXrFNj1214k9Zo/nvYzsLr7OJL87LuDlvSWcYz1T+Ie8LUWgvV6sO76jfDu93hppvc11eT1g9iQ+OZQoPmg37j2INhk9eyoevvvzBj4gfAe9O/dHvWF2OD5gOiy+z3EqPYgPCr7/tMw9+zgevc9kQz5VdSo+7uRFvW2Piz3qe7S7VhkwvoDH4b2/9cQ9rl4Kvk9Adz078xw8h1s1PbDhWj0CMUs+Q3iDvZ+IJD5HbpI9bGc5PKENqLyTJAa9Ii3jvFceCLySfeC9H9gePskpKb4HF+q9aFJuvUjvjT0sYYY9jswgPu+S2bxjOgy9FML+vcDaCb60wf49DZLDPS8cK76Alp89jd4KPgkT0r0Ox7U91JH9vY71Cb6Qf1A9qvpdPSwStT3dXRy+T5o7vdlzEz6iEzi+7M1hPfJUPzzubR6+tB68u0Ditj05+jc9OLiou1l4IL4usxM+K5IPPhE9FD6xS5Q9otIQvlHpNj5AiHu++awIPoyezT0BBy+9lYOnvZV3Ib4sI029OMO3vYACyj08eeC91Y0DPUFVNrxM/u67jVdtPclGrjtH/MQ9QIYMPuPuIb47ggy+T41gvXmKT71yqny8OAx/veNsID5o+BS7nT7GvQ4OPD289gU85AKqvBxXEz5LUsa9aW+AvfZlNjyjEPc9uacmvlRojb28BmE9Uh3lPONAEr5lRYk8RIkOvtsz771hxzi+CU2evRzbpL2ytUU+sZm8PH2kAT30nj6+6oepPSs03j1IxS4+3R5APbMe5j1KrOg9krfwPQkW9r1OXxQ9MKW7vFDouL0RF/w9WaVCPhc2WL0/boK9Et8cvrr4JD5W8Ay+NncYvWCrh711Qi++W+RMvQnULr6/Ny2+JMogvf12Qr5P+rK9MzMDvnwVxjxPjvu9znvrPHiSVbz14i8+ogMLPsAqBD4hQgY+eALJvUdv571+JgK9+LLUu/tNEj40gfs9OwMavp7nOj4ccvA96IZjvOiKRD0Yrx2+B1KjParTtLxluca8nvKMPTjcJL6k+Iy721HqPc+t4r0IRDc+/jyfPOX9i73GLQW+W9k9Pov0Fb18RiM+N/uPvSLHHL4s4lg9XoIgvSq0FD5nv7E9Js6TvQnnPj1Y+Ta+TY0kPbN39L3ZBmw8cBTQPXQcRb78RqG8bvvoPXoG6Ly0KOQ8NiEEPB4t+T335kI+RZlavRdNJb0yP4w9+Eysvf6/jL2vVCe+9CbfvddwHj3+CLS9lfG3PCw0y72T7YY91GwBvhGmBz4/Pso9vGEtPTxxIT6pBLO9I7QHvtCDXD110CY9Phn1PYwENz47cDs+2mLYPZw56r3qhUq+H/wWvnVWFz6AOIk8PCscvmBS4z0k7hQ9aexaPawQFb6teog93TA9vBPbOb32tS++xybCPKddC75+S7g9Pos5PkZwAr6qySg+wxFFvoxI8b3o0wG+sxgavd8vRr6l4+m9JKwRvgxPYT0TiC8+moF5PXTY8L3iaiu+3yp+vSiKWb3HdlM+51frPQPuvj2zdP49X/Mqvv0xqz3hDeI93ZQ4PgAbmjrD4Bg+W6JTvZYWDD47uO293sy7PU/QDb6EMsO8chvSPeogKL4dfMo8hNc3vPooFT47GqC9ZiSGvXVkOb6QfRu+ZstMPWfbhT2bgCe9t15yPA8GFz4NGRA+qdsKPoXiDz60r7K9B2g4PJACmj1MjWS9+UUnPm8nhT0Rphk9dqGlvQXAPL6jwYA9X8RxvcL/9D0tTZY8JwwpvlsYEj2/zE++QYqovUq1Db6LfVc+2vxtvey5v739NCM+AEHOu9L+Az7UBk49k8hWPkdBGL66pq89VsI8vsGmAL4R0CQ+TTDNPZ/B0T2t5b29KUYcvjNjeT3GqDW+ty/nPRz/TT2ivyi9dmAGPtRM+zrJZRc+i+ZRvTE/uT3pOwQ7UmGhvcO/lDwnoTQ+vubRvSe5yz2YKE4+Afm5PTzlurq+AUo+ugb2vcL2Mz2yksK61akHuXulaLvktiS9si96vMZCNr5vbe69apeFOkE8p73+T2+9FB02vKPOIb71NDM+4vIbPkyhBb6n/+Y9zk95vaeZCT59vZu9o75FPrBW+rtCePe92punvCeb/D3ac/K9b34bPs9wI76Ymq49UquxPVKwdL2LLcu9mNE1vfzn9j1lsNS9WRYbvm8ekzzZAAC+DR4dPiDbsT0JEOc8yhHHuxABXL3QYVm9jrETvhr9P72MV/S8bI2ivS/h2D37BVe8qJrhPbqRRrtBX4E98twEPoZe8T1Mw1u8IrIRPiDWlr3TxJu9kD4gvpYelD3N2DS+JMBqPiYpyb3bwKc96naLPReFdb1Boi6++4eGPZzJ7D1w2Wi+Cm2IPHKp3rtjSkw+eQ94vY6vA70QK1I+U0MRvXJqA7w+jom9RZEzPvba/r2iS/Q9a5zivfuRkr3CACi+3oMMPfE+Ij4kC2o9NCrqvbid07usRYa9WAYMvrqYC76RJhO+qxT4PXO4Er6B8h4+8XYaPlIZ0D0Lvq47k4j8vZuKlT3P5cI9xmQyPqKTMT4Qeyy++Y0APSqfE75L6nQ94SbxPUQuuz1WJOG9docXvqoT/r17HVW+dhnhvFlZTz6vRSg+v7nEvZfs1L0LZdG9nSuJvBm7Ob10T+k99zrGPbHZhTzmRnk7HkbxvDErcz0t0ba9KgnKu3KrHj6uXG+8M4kOPZE2Kr4hcna8RtAlPmmIZT2LYK28A3QZPlzzlz2FYTq+3HMOvgV92b30Y6M8/EL1PfIBET4hIKE9y2oAPtVWCD5zCCW+tDQOvpBGEz5SveM99P6KvOYLvr3XudC941T0ve4Zv71Dcd89ZCT4vZ8jED3oiyy+hZT6PPttw71biWs8z7gyPjOCRz64Td48pWjlPccaNT6jUAM+ZPEdvdkmBb6S4Ag+CSPAPWxf+L1t0ho9RFjDPXb6BT5whZO94jCovXO0kL1vEoc9ME0Hvqc7Ij3YZTY9bdFjvaMrMb3xTgE+XbcDvsv0AL4pf/69Pvs4vrDY5L2h0ga+iyLwvJr3Ib23hoq9ypoXPi+cND7TXhe9a5YqvmW79r14TJG9eJbKPQQezr0mrEa8ZF4uPv/QDj30Prg9amTXvbNfHT7+4vi9lLccPpXzkr25VVo9lLQsvn6nrT0iaAa+y9+uvT3B/b22tpQ9N+ZLvjnNAL602La8s964vcW1KT6in0w8pXELvu092b2xUCs+3LMrPa+4jL2ZbLq9bBnRPbEX2T34YIo9H+y3PUEz8j1w//w9LmCGPcv13TzoAdC9+DLNva60Er5BpCa+DeoBPgGlzjlYncC3w6k1PinLIL7VIbu9kfYyvjwT5b1i0UG9KrIMPvTeMT0St4Y9mK/XPTH08L054ko+PU8KPat2073Hppo97qELPofeLD62aU0+DWElPiRTT750Lgq+FecQvobgVb4F3QU9MMBEvQNinLx7QPG9lmsUvkQvF753A8c9xgP3PYCPKT6/Rge+5sUJvvBdg71GCKO9wyYAvh93/Lz4cOS9Lg5Fvlc/ED1pSjU+50MmvU3t0z2g4Ay+jKnjvUDCFL0rsgu9//PLPWCqZT5PO+M9v1sbvtR6Lb5BvfW9V6k7PtaLUD00r4G9ghEDPeCF/71nRus9Fr/0vZfjOL42BDO9qnX5u/jnfj0hXe+9cV0Rvhta+7yqhQ8+8picPMQp3DsHwqe95IkSvYN8r71XcUM9wfBTvVbYND7J/t89RysVPVhNxT3AQQg+I3jJPEXIsz2Pqkm9FTmcPXiNeDzG4W49MkAoPg+qGj1fXnq9xwA9PkwL2rzpOb+9rVIOvqjLGD4fM5G8hToYvv6FeL3sdjc+ZgJWPMBoQL7aLwm+TZ0dPhyMsD16MkO+accmPlavpz0qq8u8GfVqO86oCT0QYZo9sOUPvkvM3T3Y+wA+8p5WPvGsHz6/mqs90egSvdVHib1dArs9zxA8PuXRSL3nOgO9SBOvPB2ZILzJWpI9aGHEvRMX5r1Udae9ED2uPfCJyD3s6hK+Pq8cvmaHgT0xfOW9WGQQvpTcOD7QxeS9tWsKvvEcDDyqJj89LeJWvkSTWT2E8jE+JY0Qvr8GFz7zmvq8OFcqPjgo1b1FFNg8qGUzvie7Cz1YsTQ+HlOOOm2JXD2tdZk9t70VPousxz0Ay6Q9NHnFPckGhT2v6/g9UDsiPkUthb07x3u7kb7WvTE3p713FpU9AwJFveJHqj2185M92FVsPUcC/D3vhyG+2kI5PoeC7T30hVs9Ek4uPhWrS73ksKi9hNeRPWOc5T02x0o9/8rWvTu3ar7y4wW+1TvDPV6SRz6eoWC+dbOGPSLjnLyAEhy9d5vsOyu5BT57v/E8ZMw6vlVoCL1Ribg9Kx4PPiJYtD0R7TQ9FtozvjHpvD1DEP49jxE+vjOQQL0jLTc9O3EmvsiqTTxizfE94gw7PjjlHb2aBae9N0h6PdhO6L0mWxA+4I+/vckeibxWgtA9QyknvmmLlj3sn5W9rHYlvLj7tT23QEE+b3nevfhKLL76lja9izofvjVpFLwqAYa9OA1/vU39eLsu8FS+eTB6vQX9v71vUwQ9q/vbvQn55L1u9gA9Ph+pPTvDSD0xWwm+Mvr0PamGdz1qHNC9iAzuvYRWED3C/X28duOAPZ1evj1pXgA9Y021vfQyhDyPope9ulKoPfeXWD0SMhq9hfOVveTi2r3AHu+80yR6PbsKmrzA07U9I/R/vdaziz0yLbS98RbKPSz2WL3JPeU8nAysPToEvD1I0+o9UatovVxdHDy6BN49YVYQPt5l9L2JTge+b4Esvgvb9z0CF4q9l43+PfrLNT62A6I9YFCCvTvG+zvN9jy9m7BWPAmqMD2BXas8SsPLvXoK0z0Wo9g933Bove7GsD2HCBM+VLImvufsMr1G4JQ9gjWFvbkfAjw/Pxu+AmjbvZX0Nr7xFwO+gg2OPD2D7L1op069zALZvYECDz4odhY+s/yvPO1JH76GCkw9wqdEPvLxOL6D7xA9czm/PCHTLb4utwG+E0ISPgewuL0itrg9vhkPvkdXkD3zq8O981OEvVMTGr7svYW9MYMbu1ddAD5+sAU+0HsUPsIgzb3vidU9MQo1vl9VHj6HKBO+bmsVPlAKsT16i7Q9LM3vPAkDxD345xM9vTtYvaNzBj4bNpo8oMkVPiAUEb7oN5K9FLmkPYjb9TyKgya+Lz6NvUWmtj2N7rS9fSA/vmtZn7qBJ289v7Ryvda+qz3JujM+LhK+vK+c3L1pwom99bhgPlnc+j1O9pm9bUwCPgIHuL2G8g2+ODJGPsSr3L0Ha2O+naAjvjbGLD4fg0u+k8z9Pfrqb71W3eS8KXUwPpIJIDq69zc+hyLDPTVuIT4qc/68ixt6PZ3NRz1+Vus969kkPWwjOz3eGy4+LrcXvt3ZSb5zGSK+qkOkPbUbij2Xu009AJAmPssinT3YdkQ+Nfk+Ps20Vz3HN867DGwYvt2F8T192Qa+hHF9vc7QLD6ZUoc8vzgWvdCh9z325gk++dkBPAMWfzzgsg09x02Su+pwHjxJDCM7qGvGO0LDYLtcpVI9P3oTPZMIkzyVpwE9kn73O5ZKMzzJyu08NEEju/N2yTwAQQg94CGGvMwdEj2zQZK728sqvN7VMz0FPfI8v4ZtOQdeyTwc1Kk89c18PFzqHjzLoBc8Th4BvVQiGj2cMsY8sxNiPfi8Uzybmns8uTcJPQbbWjy6v/A8V6rePEaIMz25beE8kXQ7PHgAaDwpO488kvtwPH4PMjyA5xg9ALiDPLo1Oz3T0hu8MUW+OquOILyet4g851OPO9H9Cj3Edko9BdoHPSgHqLjT1zM8dDrqPPMBBT3khnQ9ev3FPHCmcjzHx7s8tuquPMTYALwSqqM8VbxzPSk1RjwVtfw8WH+yPDt80zy9rrm8PqwEPJgJpjyaReE8xqLBPE1ndrrbmCY7EcDdPBtaIr4+/Vs9tYXoPVWP5r36ZNe91fwzPvUwED5pE4C9bjBLPqj5+j2yrEC9D0CMvXDpNT49mAU+SbUMPik2Ar7/0bY8wnSAPW0IBz73Rhs8Lthvvq9jOrxBIlE+KBkKvuB4W7zTAvY9KYyuPeE9Jb7I0Vw9atLMPatOBT7/6Cy+JdbZvSi51T24VfC9Pz9WvplrH75I1ug9Leo+viqwB76i9fs9J9kAvpRjHr4T6ec9qihJvpGNszxH0rg91Jr7PbekgD38WPE9g3JDvScn5D2U1Qy9H5QwO84MHb4ZSRM+rnfjvLOz3z1vgRa906g6Pdn+Zb4cdwE+ejgsPuHy+r2rWto7PpPSvGd7tr3pJig+Z8kovsEmPj7NFPW94n8ePqaQJj4AxXE+yHukPMaoGz44dz+9zkSRvZChKz6azQA+ZH5xPUp0S73gTZ89OLnwOwu30b1/b9E9X/Q5u9QQRj3zZiQ+1tRhvtM2Oz5zuQY+sg30vYdyHj5HhiC+dj5XvY3Gtr1AkSy+mh3wvC9eH72Duqk9V8C0PeeYnTw1Mi+9qMopPoqGtzyKufo9FbKdPfw3v7yEriY+vjQrPmoaYT2k5Cw+DROlvYmuDD6ftma8A6SDvUUDFL51PRk9BiMSPnyoVD3khyI+v+qmPBfK/73Wgxa+RQc8voW+gz3Df5Q9utl8PY7MHj6OLwi+yfDuPZeZdT3ReSQ+teJEvTlIHL2ToYo9wu0Lvi28Ej75Fwq+UNKMPSScCj4abAo+vmtau/WGMD7EMR6+W0yaPUiXEz4Fdke9zkQuvqKoWj6ByTe+DFCKPXyYEj5NNQW+mjznvL4pED1HFuY9vStourQ4ET4Y4wA+t3jhvX5eH77HKAm+IiYFvlMWCT72ZTO9PCwMPaV2Ij6wEh++PtqOvZ2pkjxf4CI9koVgPru3tr3c6Va9zRoLvgg4JL4Dn3W9DpN7vbeBCb6Kljk+jbSiPLxSdr2L3Cs++mkOPokahj2sY2U9iqE4veU7/b12+y0+xlnXPe2Gabw8BC++QiGmPQ4vNj7r9+K9YLSoPVoYBz5T+j4+PnEyvTPO8r38NSI+UCSEPaxfGL5CzpE9lHEvPQdDMr7dU7y9UgN2vpm4Mr7udig+hNskvoIkUT1AhrK3+MulOxI3U753Rg8+1sM0PeP3LD4ZiAG9thsnu3kgp72hMQC+fWT8PaZeKL40uRg+P6EvPqnnG74rP629za04vsHMGr6kcRw+Y4ndPTRblD1Y1Ce+Pc8XPakBBb4Z1+y9iwsKPahquD1LKPm9YHwAPnf/ID1O7h+9A708Pkd2y7wFrrA5YYpBvigfXL1MXK49MIc6PuhtGb1JuUW+n3zzve1xvb0hdPA9xYEvPfz0ML7JWqQ9oUBVPtAs1ruz5yi+H2GSOuRT170bTwu+a34evh8WPD75GsK9eLg0PXcEgT0yThA+SY76vVPfFr32eKK8avTdvTfLAL4WagQ+hUhUvSxxsTyqazO9/AnKvKykKz51XgO+x/DJPf4UCz73dca84ngsvb6OKD71/Oc93kR9vRtCzz2rjWu9BQ8/PmC0Bz0Be++9nsf7Pf9PQ72abCU7JWM3vameM74Nk+e9SCTmvfNG2jzP8jQ+jItWPh+9Lj1X29I9e3A8PvTROz6UsmG8072DvYEVIT5aDE0+ZQVZPescGj7BISc+LcW7PeIUIj5wqAc9nRAXPQ6FHb5dEoU9fyu+O0XKGj6/Cqu9stpovm/TRr4Y7Qe+Dbz0PMrn6Dxv/Ek+2I8gvVRG/b3Us9C9WYztPSV3ur3XjhS+h4W/uyWBTz3oi3K9FVq0veRuXz614fo9YodYPZkB2D0QrW2+6+r9vW8SaL3TAfE9QPNSvjEP+j0C0k49CQ4aPIZBS75EfRC+dWoOvtRjjrwFjJG9bZDhPW4btzqoBnu7zA9evhZu3T1nBv88sO6yvaqOCb4HPlC8L8QgPrPd/z2v8+890R1vPFzaJj3mJia9ttiTPCmcUL6voby6mgw0voj+kb1pNSW+Ys23PdYiGD3GPfc9pScWPsTnwrvluNI9Fcbhuxt/mT1c4RY9baGWvOlLlLp+ahq+UZ7FvWmdij3+oXq9LmaKvSP0TDtdN929P42yPU3r372o3bS9wCOUvWbWCD4noCK9bPMrvqq/ir250ti9la64O/HhRj1ishK+TmT9PeJrwz1YSzC+tlgSvv2L5L3lfV09nrjvPQrAOj7+Kgu+Hn53vUOoKz13jAy+6CkcvpUqMD4xo5O9YpL8O9+1PD5kZsS8c/4svWtaFb7KSqe9RMiPPBXnv71FFGo+N6Y3PfueCryjppQ8GBa8Pbei4D3MHzS+hSeWPYT/Vz6VYCc+6BocPV8oHr7h2zK+8z0QvneAPL3m1g6+UlVJPWu0E76BVCM+kraKPQh7Vb0lkra9MloVPasvNT4UMNU943CMvMpNBL6v/ye+AGMCvl/Cqj3d6Kw8LXynPYLHtr09zxy+Q+tNvtay27yaqjm+O7BCPm57Wj5EwaO9NOXyvSZOdT2mWPY9t+N3PcU/6j3u2+899e8UPg4jI7752SO+JHGTPdIBUL4rTKY9yxgJvi8K2zzTYvg9cPgLvs6dMb5XxUu7AUaSPdqUD73Av3Q6dAS3vVVCBb6LUCQ9AY6DPjK9SD57x7e8W/63vfjtAb4Rfgs+hGtePYe6Wb3XQ1a+RqOlPUL9hb0YFo+9EWKvvfbeFL17YIC958yUvFtAXj24t++9CORYvVC5rT1p1dK92iADvVu6cz2kUqm9uGOLPVV1mD1P3QO9ibehPV9MIj4eTSC7FuuBvK8SRb0YgWY9a2TmO5LE2D0Tdwo+HPGNPYNe/L355pQ9OzDSPQtqTD5rRGw+O86jPVnN4D1wBoW76zHHvUHCEj677P297ZZ2vIBPrz21nLY9gN8ZPhefGT7GXVG+51ufPJWF5z0u5SI+od/FvdBK7j0WuhY8t1Y6vn5gRD6/QIg9MUnIPcUjAD7gPcK9yKLPvRqrJb6Fok4++NQbPRRSKz6MpN494FXNvSHzIr6Uaz09jTUpPioIIr4oxw88Dkh0PHIMMr68G8i9PhcaPnifwT1Faqs8WarfvZ1Tjj1be9u9AKIcPt1pn73Y2U2+QLdZvk9AJz7gN/Y9owo4vc0FJD6MWdY8gAOIvGZV1r2NzFI+u0Ugvevtabzjyzu+dSsHPqdL9T0+hyc+nXAHPvHBkzyKGiQ+yGM3vfNjfb2q41Y+Y9xEu6oZs735Ie+98DMJvnHFk70MMwM+BmvKPfYIED5gjhk+iyTJPccgPD7HjQK+5xq1PVK4U77Ubfs96+ENvEj4xrtQvkW+DfFoPs4spr1B3wa+kBxyvYPMSb0EQaE9VAogvv6P3r0KGPI6124mvqY1WD00Fp69mGEOvhRv67nPr4w8nn5APSm7pbyOHsC9CW8HvefCrzuFWjm+ipDUvZuhKr49qSK+UMO8PRjZx70Ef7m9ndYFPh2Tkb1DNYK9k4vNvZ5HZT1Iql0+yXYEvvTz9r340ae9C+nHPef66D1nfRe+AND0PZwt6z1w0jc9F+qNPRAgHr7Kizm+2kAcvqGsrL2sLSa7WvJWviMC8D3OrRI+5eb4PXv4cr1CNBW+2DF5Plb7Rb4e8wK9z2j1O4LcSj6fdLA8NutCvpH8Kj6MKBM+x+2ovWo0G73JlNO9/9qFvO7D6r3cNTg+Z9UXPRHITD5iQg69yBpHPORu8T2Tjrg9iizrPHXi7zz4TgA+TQ9SPGEjKD1hKao9QlczvvhFXj7Zrg4+0zX6Pcf2xryiI728cj2kPY4Wa74W+wE+LjTvvFnBKL5DbxO+fLsQPll4ob06Sg69pXkbPpW58L241Me9AUMKPWsaF76DyiA+BCIfvoy/LL7TQDw+wvW3vcKHSb6zd4S9HxOCvVUP4L3IpBG+ElIJPiMQdL5RGu49dQA8Pgr44r026dI9z0YnPqqq071H5Qc9YtbVPG1Ta7xNGOw7tuHDvS8m/Lx48P29jV0svqxElD2kqA09fpypPWjxbL1MJEw+nK5pvUU9wD0JsTS+Ifj6PfRzZj7gxxk+R1ZEvs+yAT7l7Aq+oBk+vdGzjjywejq+o62zvRBmPL4tQE6+gqjjvf6O9j0RIRc9flJlvW6wsj1qPQq+gjHAvdxCjr0MCQG+UdzjvXh6rbutnZI9Of1XPqu8Uj7+t2q+GMRfvCgDGz7DSr89SHMhPY4wCj4GTQi+jZo+vJqF77p/CNs9pyGpvJ3VILwB1xW+U1U+vjZdI77Svhs+th67PB+URDtVL3A91/PbPaCg/z0Vvdm9n4jqPWvd3L2HgzC+XgxpvsGVrT02JoA9gsRUvZFGBz4fVLo9RcKxPd73jD1DQ6w7tmDePZ2PFj4WTji+RyMuvloMLj6NYn69JiQkvlksXL0Pp9q9Vs8DvlTO7D3jXSe+Vi15PVN3Hj4XdDo9bgc6vpTUZ72Jj4Q9pcSdvZEPxjuV6bw9XE/qvem0Or6uJkA9MEghvMYXq70KtyM+pig1vp2I1T2LpdA908gdPphMLz5Fxhe+N52hPXZRlDyBvSe+WgmfPaiNTr4tLrU8wcTovQ/dKD1MUzs9VY00vtoJ5z3pFkk+P38GPjujUz18YzO+MxJcPml9vD2nr5y9Hwc5vlWkCL64FLS9lzHNPcTJlzyDZ1S+0vMCvtGWO74dfpW9HYcqPCsYVz5+8kM9XXLLvSYwSD75FAQ+FS3CvI0ACD4B31s9joELPrJoJr6tjA2+hCc8PkTIOj5kKqs9XwYpPk3t0Lw2Dsq9jiwmPqr+Iz5nVwm+Efc8vdOjlT3hj1C8t2bovfd4Er7v6r49EburPbubuT1rUEM9SU6bvdOLOL7BRAY+nWFDvrm1r73X5W0+pZtHPmnw1D2r7DS+KxcPvrRTGL524iI+pTlAPkprkz1KCf69zrPfPLIhEL7GX7o9H+rEvdf2Jb6w0787k+0YPs/HAL7XuYK9RSeUO0a1Qz5+sy6+8uf0vNoHML7KQrs8cNUbPl4COb6ePR++xKjrPaTd1r3ZeEO9xqsnvUBFE76ZsQ4+8PRKPt81xL2r+q49nzeeu+lCnD3qS6k9W50RveHj6z3j/wY+gQz7verZIL5ZI2W86+eIvGDRAr6+cLq52VP/vY4sB75ozvi93bs3PgeCFT2cGTq+O0myPdGxy72T0eq9/yM7vjMVnj0iV8A8d8RNPSsgJr5lN1k+kbr0PdLMCD4DtjQ+qz1BPC4vDb4q/Bq+aOTYvdk+Pj6XaDA+DZEHPr+nqT0kw669CTBXPXEIRT5FNma9JcVJPUN2qr1YpK29+OsQPiL/sTyoFG+9u+LaPeMW2j28zyQ+kR5SPuuwG741gNw8JHFyPFklQ75gCCY+IXDLvHcsAz4B6q09wSBWPTvRMj4riDC+zbspvtTLij1vO3k7JU4uPtOvoTvHHA6+jfpNPg8y8L0JEGS9FE8HvkWA2bxk+oK7WmQvvRd4v7yqigu+avDePfc2Kb49pga9fbYMPjI42DxrEcU9RJB8vaFk4T0gys68NQ4hPgN5hT3PEVs+FVTsvILE5ry2jRS+gLQiPvYasL1Vah6+Tn4/vu6MlD2dJ+K8T2PSPWinuz0Q7q09CLJNvhmPZz0/fgO+bMIUvXt9xD3h16a9KbX3vQFO7j3CyhI+sdvjPAeyCb7SIQA+Cn9TvZ7vPj6tKms9MeWmPX6Uur063dy9XnOivbzDej4MEf49lAP1Perpqz1bTxU+PgzUvN4m9z0vvQ6+Sg/9vHSE9T26qwA+xCqkvfvz7Lwd3gE+sMJAPkroDL4n3UM96DkovigFYbw6Ab+9xDgTvdpkgTz7kNa9Pl5yPY19Sz0ddIq9l59Fvf0RSb2dhDw+9gXpvNQHrb0B5Ca+es1xvc17Sz7Fep09sr8zvq+1Zb668dk9a5YBPn2sDj1j35K9bwgVPpGG+709DJm9A7mFu0VN3j2o9DS9vkpPvoocwT29LiI+L6v1PBNrsr1WUH086SikvZ2aAr5phwo+QzIVvhpjuj3Go8K8s8IxvoP94rxtO7Y9SECEPYZgST3xZyM+PBEBPrL1tLwY+oU9qQudvdfABD0WM309xOC5vObGdz4ohNk9knJqu9PSQT569By+lfcKvg+XBD5cEeG9bEw2PZBFG73zICu+eVIFPsAOVj3H9zu+yFtJvggSuT2UKgs+35fAvVlJ6jz1TzC7Yoa1vdFa4r2P/Zm9F34NPXRFFj6YMwY+LOiqO/RWGD7ummK9ILwdvpC0M75PCKU9lSbdPVKLobl4MTw+DkcjvRO4Kr7oBNE9lOMUPmVA5D2yhBO9dfMCugC2bTylLtk9lF5Gve8Hk735KCs9Ruzou7N/iL3lYEW+U0/JvWmiOj4Cixk+eDvNvSztRb3XoSE+HY7JvaWdQzr0sBg+EcMcvgNTtL2uFOU7D9QcPornET2dkCc+naU0vi3YgrtlLty8jd2FPQRQNj6cGee9hSkzPkTwyD2Bpt096luNPPv5ir0gg4W9MY+hu9NgnbwqDDA9PJF5vSJzPD1FeEK909cwPmVrP76/JRi+hYQCPjIrK75ur5O9z+UuPt8XGz5pcSe+xyoyPk1SGjsLySc+SNdBvnNxwr2fvj2+9Q47veSmNr3abTE+bUYEPrAK871Go6O93mEIPTub5b0sCgw9k84fPvH+RTviogW+6hw9PnqrRr7yPqO9sy/ivWYVrzlnYBM+YgkGPf7c3b027948uUOsvDswKL2TpSw+24jhvTE+Ir5Nfn29LugiPhmjlz1Siv89aNiiO5bWsz1k7Jk8YA5JvfmVWz6159e9Y17NPJJNiD3yKSI+Ch7EPcG0P72gVeq9tAIhPmLJ1L1QLCO+extiPsbNC77k1GQ+Rx1APhSDBb6ekyI+Vr0QPuHhADtB5ai82pgsvW2wWr0kgdg9cXdBvZYF1b2UnDE96t+WvZ89TD4L4PW84j7CvNf9Ib6VlEk9qlv8PdV7870tSEu+cdAJPgFDLb7E4R6+qItvPv9AQD7467A9vQTevfGEKT6I2me9ourtOxGMqj11gXY+yXk+vkp8Xz2qpQc91E5dPZeVszw1BH28Za20vAghsL1RaXA+clPNPbwqmzzdkF89ia8kvSmyDbzTdBi+0pZcvgGbDz5sr1U9+kN0vQWqsj3b7F++Zv9hvVQQTj4E/sW9u4IZPn67Zrzp7OA8QT5Rvm1pXD5TKmA94MsIPri40b2QETu9UA5CPrtJFT1w6yS9MBdFPW4pSz4EQDI+5cm9veRtDz6XvD69veYAvvPlvL2BavE8FgUmPqnTD770Xce9DxbMPbjTuTxKYe6930usvaO+TLyl5Q+9EJFQPXPVCr7iHDe9jJkVvq8mgr3lLTa+qAIXPSZRo70x72U+gTYuPqYn/T3hqla7SgjPPaGYzr2x09q9Ov6QvQTyDzzGAx0+KNkAvZGqRT7oXwS+y/n6vYrPyz23Qnq9/+wEvgaSlz0h9M69SwMEPZghLr6/4dO9rupKPBN4GD5k7po9Yiu8vK39uL05sZs9a2AcvrXrzLwV8he8plpCPhgOnj3tnM086LC0PaLXar76T9292vBWvLv/hbzAF0Y+daWtvURR/7z+gxY+vzvKPMcTg7wgghU+GfsdPcnTJj4YWhk9qKfUvSFCBT7WX328+Klpvpi96j1/VLs9qgr3vWfHxL03I4M64uIePuUVRj29FqA9biHwvGKXxT3AqG49LxBTPn1clj38VZk9nMonPtLKBz7/fKM9D2IUvuusRT7mtwg+4HEJvmszIL39xA0+cne2PZgUAz5dESi+jd/cPcNRiTx8WHW+j+4SvjrbOL1tzXm+Q7pGvp7cHL0L1yI+1NnEu+mE7ryXCmw+Vdcxvm+csj0xEam9OcquvEDRAD3uHSg9oBCJPc7vCz0bb9C8Uqi8u7mXAj6SN749Ztwvvh0EeL5dYNs9Tv3Ivbg/yD0M0vg9TnxMPSl7ibzzYP298C8PPgj3ZbwuRme9U9wFPl9nyLxK8rO9eTrmPVPrBT70Bzy+BysivnMLKD6440Q+dklMPhRKQj0mVvO9PVQTvuKh47xLzQY++dlOPsBqlr2AllQ+miUHPdpDmb2gCyy+J4DSvT4jID4KALo8VrwFPbPzSD3RbBO+cFsVPgs4E72HRhc+UguSPR9KGz7RBmE9n2+Cvgs6vz3JqmI9SXfnPZY9VzzcwJa8sem8vXO7ATyaqJU9I/kkvgLkbzwGpz8+bRnKPXjEGbxwZPs9YHiSvTZJGj2GSQS+JIKaPGc68b0HuQC8rpkwPpFwpj3c5bC89krEPGnpBz7351Y9KAfTvXLI2D2ozGO9VYszvuKJqbwoZzc9e/g6vpcoeL4oFpa9kB5ePqrDvz0tHDM7VYi9PdosnD2apsO9k9rRPRQ+J75y+Lq9hnZjviIk5r3PQyg9tg/tvZFvHrzgDLm96qW+PN06KbwZvTE+fzKwvA7yG75EJsg93Z8pvDM24T0DfUW+m8R3vSXxDr5dUTY++wEQvku6Tb4OK04+u/ztvTfoNL6sE8S9VYebvdmEAz7OIe499g6YPbc4mb0IsBi+eIwsvYUxQbz7siu+eKAGPnKgLD7v85m9zXJNvRrJDT5ZxxM9klSTPL+QhT0lHke9M/q9PTFfGbykC7I9MEX4PVoI5T2Gvuq8DNrovUcIpL32RQS9ci0nPo8nhL2/kcW7gyuDvWtkND0w/3E9M5aqPeLEHz5oT969rQ89vDDGQL7tgPg8FMgfPmkLuT3fE2s+088wPidjRb47NKE8FHvKPcXKJL5prc+93pEhvHx6zz0ljCo+jYcJvUkgDr5olR8+o59BPXuF7L0Lpx++5mYOPs8SAD56JJK8CZI6vJWAOT6zy0Y+e1EwvhbItb13ng2+Daoavr/yLz6bVr69mk4ePdzgHT7qcbk9C6D9va6GiD26HAA+8JIvvjtuJb1uksU9QKItvT5VDD5waCq+qmMVPknqjL0OGxu+nqovPnDHur1WFJa90qv5vR7eKT6VyU8+n+HCPe2RPb4xOVo+MoeQPbhtwD1Uwew91aQ9PhPCh72ljeg9oJVkvNur8T1klgS+TgUrPWdm2D1UDg6+OMHZvO3KHb0W7lm97fCbPVQNWL1Tlr69rtrWvYBzp7y6V/y96uxfvkn4tr3bR/e9j4bLvbylaT1H5nG9Zj4xPiOJkz3PG6K9YBjjPbnY87x1B1M8jFEEPpegAT55I8o8loCNPa2hNz6fixG+nZa9vVDjzb0wtvk9ISx1PYzIA72ERBU+E3wIPsJ6LDvyTOW8SYHWvQ9HQ74miwQ+a/lfvZCsNT3jjYg8f+uQvQsDYL6fWR8+wHoZvpAYDzyP3VK9rnfMPVAnVL3Zdyu+OUobvv5FlrohQJq9O5r/PI7tGL4fxko9EH9DPSzZVjz7Yxs9M3BePco4g70DtKw9fGSpu6Qc8TzLa0I+zIodPiuwvb2QpTk+0t0Rvrr8nT1BSEI+MB6avfcbWD1nEIQ9ZopFvplQLz5Mls89lywRvs5hKz5fs+i96N1AvRp10b0cKv297PiOPafQ270aPkK93mNsPtscmb29pgi+ENJQPfMWp72umAU+4q7IPWhTGj4oyBi9TFMQPlaONL6N9i4+4GKivZelHr5/jSC+sAtUvG7DUb2GOEi+BjLEPWJwO740bDa9QIL1vYVaD7yCzzW8/4EaPg0RwLxP20i+mFqTvGy1mr3uQZi9BcF+Pbil/DxvxE2+EEktvq09Cj1k8+i9bVIkPo9Dvz0kolA9mW4mPNScKD7PPTU+GvWRPI8TAb6fMwE+2sigvftoCD2/pQ2+/orpPfZ4pT3XXzy9RiQ6vpFlFL7XqAm+wnYtPKw7mb0ZvB0+bN4cPvgZ6z0g4CG+bn3JPQ1Q1D30HJm9EnkIvr6eaD2QbUY9xmYgPiaekL2k6oI9s5kCPVAp9D1Ltg4+wyodPn6p9D1RIWo9k51KvvXjjbxXWYo9rB9AvZZGEL6+5gI+FVQ+PXf0UD4sphG8upP1vWrDtj3CHAO+KrkFvo4nDz2qb2Y9cr+gvAN78L0aKiO+u03OvQO3wrpGoRq9jNAZvS2cRz4MOyo+rX/OvP6IojtH+5U99YNKPZWIUr28OB6+BpmePUxHvLzl1w++sz0SvtSQKD3qM0C+ouw3vN9E8ryxkxw9Y6A1Pn5Pg7tA+s08RgYYPsxt9r2pdT8+hsIrvVtns73vK0I+Mz4nviqtDTzRv569f9A3vaZKBL2Kij+90QUnPgyOFL5WzGa+CN48vjuPsj2a1e297fg9PqW7f73xvgW9f3BdvplB6T3DC6s9lK6mPTP5Mb5HTyG8vByZvTKVyrziyic+oeIqviygmr0h1zo9vzgwviX8/L1w0Da+TaAfvuQxDr7MqsC9+XwmviKvCb4kCSQ9WGKaPToMO76yBO49XIb5PRvh5D3bqAi9XIPGPczFLD4r62q+BNtDPlPj9T03Y829AM0hPt/h2jxNS8o9fgxBvVzvBD4Heog8dvWAPSof2T1inj4+dJlRvMzHCr1Lu+Q9pgEMvr4Wej0PHvo9VVJHPTNjNj7Qlmi87DLOPe+d5LvBER494CfKvcZ2Cz51chW+xEoXPte6Qb4GDvm9fOlevScMIL5a1nq8LQfWPWkWpj0TFDi+jfGPPb1+4T22ISU+tqA8Plc8Gr5iMOQ9IyAxvjt5Gr2ebt29alr0vWx+gD20wAe+FIojvs4zjD002Re+AmW9PfbP0r0oYyC+QXkUPhDH8b0ZZXO803dQvudPtD3JANm920ELvpHe7z1AL0s+n088Pmkfzz13xUu9NHcZvnaV6j1DxIy9/kb6PWiyLL500JO9PrlNvdD3CD5AOlO+vcYPvvr+UD61DNC8c+h3vW9dBT4xa3K9FifxPE2qMr5LxiU+isNFvlDz/r3BAwW+K/msvE4YCT7YwzU+5QC5Pb5rPb6ZMDw+sL9gvTMSHb4Fyik++bbQvMuC8DvsyZ09D6yxPfDzq7yI83M9ahJDPnM81b2K+xk+LATqvQ7ERD5l8tk9HltYPb0FA74doyY+grNNvdCDk70LqII9aDrovVp1sr2z9zo+orM+Pi8lAj5Q+889t6avvXHNED4FlZ88CYeLvbULSr4WPoi9DOQ/vgGg1j3IRD4+eUiHvCa43L3ydwI+FS4WvuMRBz5obKe7XOkLPkNkOz0D2IK9+TllPZhWTr3Nti0+G+UcPpYOJ763GTu+5A05voHW4b2tYV49CydnPrizP72vWxi+oKsYvmVTz71qBtA8upUkvl7ij7t57Ka9QuE9vvqLrjyjEkE+TJtOvdN8ob1hBiY9cPIyvnACtz3z7Aw+DDEyviMlob3e/du9ONwhPlcGPj1wI1C+2mOYvZWF/z39EEi+urNyPVBYDb5Rdeg4fsdMvll0gz2i3OY9vbTXPXbOrD3KfES+oZwpvu8KqL2w8K29xwxEPkS7PL2uxUa+4nYdvnjgrDyydiA9tmeRPPGZAj7f3hs+4oX2PQR6oTzK5U29N8BDPcQeJT5ibR2+srT4PcyOFT7RGSs98X0aPnqcvb3Xop29f2WnvfL/ML7MjeW9/GI4vehFuj13OpG91pSnvC4hGb0ryNq9kUAcPmcjuL2D3bC8j5KWudZH87wQBTi9hikQPf0wyj2hfrS9x1jzvcTjGL4MSuk9cxiGPRS1/r1YLDu9QOk5vokU/Tvotfa8R/zrPU7+9z1jTQm+Y3/lvVPfAT2U8Ga9q8nXPXWLWj4kcE6+NJX7PXk5I71GCJa9h0YUPgRqXT531Iu9n/MqPhX45D2MmeM9yuyVvRlULz7uLUy+psUSOyCzxD2WUHI9sj9UPVmd773eMBM+z/CovYj0ur0aeq+9tdo/vlkzUL2aV/i9/F8cPQBJij0d+00+QvsAvoDvx73wJT68ygkPu5vNtb0oY6S9xxoIO4j7Er7dkLi9Cls2vQvJCz5084s+4wT8OnL9ID5XLrs9q+QfvDJS7zyJNwA9npgnPlPz3T2Y7T88N3hZPfvwcj77tbi9xSMMPag8Kb7vI+E9Jr2NPX2eJz7ZBCc+JU6LvRnkg72ZGT++31yMPdQfcj7up+U9OJIQPg5uNb6/do29CCYgvpb8nr2RvpO8ezoEvgUKKz4WFAS7gxfqvXgCB71xDsq9b/bBuyl1TD5qKQ88Cpu5vV/GaL15Lza+Rwc6vv6pFz41M3U+MhlVPEtoEz6gICA9AHFlvE26vzwA3yu9dwh3vnwXxT02TEk+f/ILPYhYMj1Fsa29LhjSvSDJ9z3WkHi9pLYTvfER/j1etfE953QRPWu1wr2yGoS91oMrPVMNwjz8OGW+Q1q7vdlMWr2RQ6O8pHpjPnpVRT724xu+U8qmPAnuCT6aTjC+j7h1PQbVn720Kz4+VsXpPWym7T2jbAW+G7i4PdDNgr3wFCo+yVneO3m+rr2KTQu+dgs1vGnPzD1svKc8g7AevWmxGL4uhIW8rNB8PVRJ/T1zHek9QThhvd5ziz3ESu+9Uy4Vvb8CObx8oQc+/xYEvrvH4b3ZQC2+LOHCPYjZNL3I3Bm+LzH1vTelN74MSwu+I30Uvgz10rwRGx09oX5nvHsjHr7xVIi8Lbsfvjg7Fr65I/y9Rf3uPWqbMD62d2Y9KcObvfV1Ur0wH/W9pdtjvI5VDz7pkay90pUHvjuiXLz/qy0+awCVvS1xPjxOOyC9YDp5PdChibxO8Dq99ctsvCModry4eDk9mKEOvXb87r2tvz48CPyyvRA6jb0lfTi+uGJzvTqyPT1D9hO9kBkzO28BsL3mdMa7bNnwvQ2lCb7xBuS91++VvXxniDz9H+e92lDXvSAebz7sV9g8ETXpPeI7GT4rqhk+C6YGvopepjuPobc98hswPqx0/zrI5zG+AmGiPcOz9L07PiU+0P9VvvmU3b0l0FA9TqHXPUMD4L1cUNm8HEQCvjx/Fr4JqdC7SO7JPb/Phj3Lira9rKi7u7QMLr1vBw29ZHP+Pcz6nL28fBc9IAZOPjJl4b1C1Nu9P24LPtfd07tC5Js8elRFvG8f8D3wGY29Yz4uvicz2L1OKiK+N7DdvDSYQL1y1Qs86gEzPunJqj3c2A4+ocqtPW3W6zxfqRA+BTJmPg4/Mj5sqCK+WtYYPreeET6urCI+hSX5vdLXIL5XnQ0+uSctvoQdwr1PP0i+JwIDPqH/Ir4Pg24+uSe6O7ssaz04KLG9k7wAvcm6Ir4LpAm+4KSwPR5osz2s+6S95C6TPNRNGL4ysQs+V89IvvfXjj2jDjk8wKzyPDpFxb3IgRA+4ggkPoImV74KJxS+qNURvYDNtz01ZhM+cQdiPievoj1wvds9rpVcPltjOj4VFyE+pkjXPYSFWD6IqZm9iZhFPfhtzTsZnBw+N2M6veNPaT6MUSu+cZRJPUD9rrw1+gc+oFWuPeoYursKSRA+tu3qvTmuXT0aTgu+ODp+vP5W/LzLgGs8R4IfvmDVa74Fexc9t43jvYjwpT1Kahu+zhv8vQTPFj4pZrm8nIEDvOWiCbyo/aW8b7wfPsr0eLzYZCy+hSBivZ8LTbxGFTI+wigNOwmIM771Qq493lrTPWeMRr5FZLQ9jE9fvZCZZL5aPh2+nhJ1vUvc8L01/ha+9MWcvM/HrTxmFn25zChvvMrd9T21IFq9vQQGPte+JD6Qa8e9Dka2vbaOHb3rqDM9+pHVvR7aAr50bKk9fpRXvTdjDT7S7xm8+aG0PZ2/GL1IJ5g83fgXPRQJJT4l80S+4n0fvvyAIb5Rczk+bjGvvdSlB72TZhC+EfQMPi8QmrweqZU9vrAivq8AF74YjZU92wpdPgaomz1FkK49JmwUvb9vFz5cRwe+zo4OPsOK0r3YE729vc9DPkQcNj6n4ts77jTSPdXxQztK2CW+Q+jePF3HED6pYHg98dE4vqov0z3CihG+mZNLPcjZpD33qS2+9b4UPi5eAz4UFTk+J1wDvlaN8D043Bk+AvUWPu0ERj39nkw90QsTPmR1Kz2nAr+9XWCZvI9uwb3BRxI+haUrvROJET3U4UU+DendvNyQAT5RsA69uSOWvU6Dhj1dcw0+xOrAPZ7Mq71kORi992MYPjM7yz3BPt+9/+ZdPbBbKT7cqVw+koNNPVACT7w4tDy+zCUTPoa/+T1ZD0Y+Gz0HvoVEHr6jwhY7Qh4KPoXlMr0Peb88vOocvo7USD5pEyA+14mpPLPg2LyXcB2+HoIxPiydAT5qy0I+wCQzPnh5Db6XnhQ93oLoPbSkjT2SwsQ9jDsWPp7mdzyamp68MEcyPnZSVD5Hw6e94J9QveWwl70AHOK8fLsOvgR3hj2BMQA+qCG+PdDyjb0C6SG+7XMIPufqEz6agx0929/qPaA7+D08TBG+fEwdPQtI9byWBxA+0QrWu04ywr3PD4y998dXPaZjg7zS+Ak+kuniPQg3XT7twZS9Cae7vdcfBT5PVj8+QQ9EvZY3Ob7t/js+NcQLvIVFfj2MiXI+N93yvVf8Or68eJG9sVrhuwQ7mD0CuL08RiJNvZd0Vjyr82o5J0zhvYTcg7336vs9nklKvhPc0T10Yt29TficvYKH3b2neXa810U7Pu4mmjysise8DAAJPhMAW73SzzS+5Q1xPUCV6r3XKMY8fAM7PG+CV73Qfgc+Pc0pvvJCjL0HqI68CIS6uyzp+r04kQm9yt88vmnax7xlWRE+XlQvPlpnJT1/a449QtWfvd8vIj4WA8a9BzsTPmmjab0W26493zf3vaDmF77WoAW+KMyDveBuEb4MZcs95q4JPviCHD6LQQq+iqOZPeKdzb1oqyU+MLxWvTm2ED4yc5I9ubN9PVfqtz0VN9k8OGn4vZIi2b3c/fi99THxvIk3vj3U8xI9ug/3PRTboj0ZcSs+T0I+Ppsohr0IagW+WsQ1Pm3QAz4btEA+2qd2PXs3GL6PPow9ecwCPuJmEb40hzC+4jFCve8Izj30y/U7S0hzPkFAor2/5kw8TGVcvXwhCDw2QZY9gbVpPne4xj0lpFw9kLDVPZc9Ub7Nl7O9GMJjvAPaGb64dgY+JM0jPiOSGr6IlcO9+/qJPcMJTL1ifoU8MmEBvSwFIj3NpRq+5XkDPsIKsL3IpuW9AUKHPWh5Ar7suXg9DdwyPrOcYz0q31a+CW9bvrVMiT1yEQC9xYLKvXk2bj4ZgcI9SmA1PSVrSz3VJRu9P9KFPSkyoj0QOoq9JlZtPjvtcj3r71u9Z4NfvPD5hj0gwio+MRk3PYEMp7xKJxs9gJehPY3YDD4QZ167P5QWvrdFH75sD+q9bdMmvrDUEb5tVBW+Y/3/PeNiDb0/soU9+ggXPSzaKT7eQ0Q92jJRPOEdKT4BCe+9TIesvTPAzrw70Ae9otQWPvoCIj65d/W7COIbPvIWdD1EXhY+nOzKvfWUML6Tw0a9ytWPPUEeJL4RsJ29Bgt4PY8srz2F7dg7h/gSPkJQoz2hOwk+e5WovTG6FL1QFpW9RyGkPQAcqj0xkhi9O0ChPaM+Sz50kC+6HZcXPoznPr7p/ou9rmEZPjNDMz7MR9W9hZM9PlvHrb0Vfi0+uMEIvvvI0D0Qbh6+d9FBPC5nwz0ocQK98rPSve4xE77wxRE9/HsnvvwWrD0ACQy9EmiqPC2kDj60AB6+uv6XPLaPGzwpo0u+IAcIvl23Jbyo7u09Ij09PtpSqr13/hA9xcCpvRABmL1rXSs+cCsrPhoN1r0R6Ay9jjnXvTqiHj5F8V698EIjPrTio735Bow8G9vKveqvu72stPK9dg46PtuyQT1G9EK9QayoPdL4DT7cPiw9m72FPbQsGb4qEPA9Qg3qPctNXr00csU8oHG6PSXZn72JRxo+tEgNPsdLCL5MdQK+wjo7PTGv4L2T+uG8muaHPTmYWD2oViC9xOG2PbGtP71wu/y9xEhJPer+DDz7akk+YVdovUe4MbxzpJi9LIqcvfJ6DT0/Hp69IBJCPnpSkb3envQ9/NAmPV52Nj7HDF0+8ZQevoZqwz0MNb89pvevPOccDD5OjkU+mz1+vWRb2T2m2sc9M+SSPfAVhL3kdy++kUVzPFbeBL47F009L4BCvWPFEb5x1Tg+xt+6PeAe0r148qk99rHzPZtQOLt+/hi9/kUSPl+R0T0Pyik+VB/xPJke3r0EJbo9rvQ9vTSCrj3GuBk+BYD3PdnwB71NVDW+ME2cPcnAzb2snDW8kmEavscE7j2vPGY+k6YWvh3eFD5iGCu+TYqyvcn987wx/Ao+iJ8MvCmkDz6r+Bo+cSTXPeotZz7q0Xq9Lp4svR7pLr2/VFG9FtQ4PqM5rLwFKPE8rstZvvB3Wj0TTes9HBk1PDorJD78acq9NWEnvctEaT4dToA971riPYguAj7pwMY6xX0UPp9AaL66jhW+YCkRPp9tTz5+C5E9wOJNvVz8cr7l7Q29D3sZvXB5Sj4T/gA+BG7MuqZ0YrzDvq09jdX5PVev9r3AdEQ+qGpOvUmkLj1o6yC+qos5PnkxUD5y3Ii9CoOOPXCKqj3eigM+OWjvvey0lj1aZ5I9u+dEvbDNpj1E4SM9vsL3PTQ6CL4OrEG+5KaCvJ6pyj1TStg9D4JxPVIpK77mKyy9qZ0APYFNQjsDtMS9qJxUvc+MTz2l/LU8ma1EvgVrCz65BmQ+8x/aPZwhvL1rMWi9CPPSvQTKM74IIMu9hcakveBjEz5u5wA8JN2KvaiohD1QLD8+s4o1vn77YL1CABK+exvBPZHL0zzydrk9zgCIvb7GSDrHiwq+Z2ZaPFNKgr0ZxgC9azhtPWanKD5ye8+8pE0tPj4tHL0UPZ+9mmejve/+v71NAsg9DMDkPcWjqbtMaUA+8ND7PFZyjj1Cl9+93LePPQBPWTv3rPg9vz45PuiF8b3hEgE+ToFovrX1ej0MP8493nqyPTH6QT62y2u9DwooPT6L7r18Cyo+VOijuikj/7tzSYY9oh1PvKq3vD0pos+9tVEju/INxztWhf89f5rgPZFn5r25cxQ+U0bCPbH4671wC5O9WIAPvjVbCz1j7is+lfRpPY0esD1Sjmw8E6OuvVMA+zzn0A2+XXxTPl6YnD1fZcI9AAyEPdIhXD4anQS+RDvSvSpC8jz8vQK9+0TqvcPEpT2XdMW9NZyBvfOfEj6+cd+9Z7LsvBHbyLx6UNi9WoIzvUnFtb0o8qm8+mQevlzGOD43nrM9WpMnPv19pjyvq0k+C49cPoN4rD0AeBC+0IDLPfC3pzwDYNW983w6Ph+XGD5ucK69CWQXPkkiCD1gX6m9epTSPc28y7spNBE95/o0usmDnr3JP+m9gHQKPHnoAb2Uj4A6oDZaPoZbBD6WZjC+A20gPlOB0b2M38i8BOabPdZ3GL3TK5i9xjaUvfheUT7vM7e9iQ+8Pfy0Ib41VEq9SHXxvQDjTL0oFdI95QccuxoeEb0tPx4+33+KvWHeOr0pJ4W8SXovPt2zmj3IBM08TCJJvVJyCb1VE+y9JzNVPZ19b72Gjhe+aTYJvvReUT6lDuy97SVVPuaR2LyGMLa8GbA/vvJ80jza30G+DDtfPskxFj7mGQW+ZNFJvmex4z0urWM8iHyKvbyEE77Zb1S+wj6TvRJJhr2SIjY+8q8HPoW7Vb0TQcW9RS7VPTcipz20O3+7mcbLPHHCwT3/HAm+NM6EvVWuIr2nLrO9JqNjO6I+D75pGBo9I3xCPhl7mrnzLfk9YJWbO9Io5L2YY+S9whQyvl9RGz0D7Ns8Jd3uvdy0+D2iixK+WS/ovR7obr6Ipqc9xgH1PZ8CQD0QfuY9n181PhRsOLsgsPa9vM7svR/s5b2F1S0+GpUpPtO4oj1xYsC9DV5Yvb5yur2ioRe+HtUuPWAi6r0nWTg+kCx3PSyxpj3VtZQ9FDMYPtCs7D3bIBA+NN7LPRSiJr5RedU9jCj7PTwUJ76IEZi9/MRHPhgBqby62aq7ZBHAPbZsBj4M/5i8c3aPPQ+Wvr2jG8s9Qx5lPbZPND6a7Js9e/+oPXDnBT4EL0g+FyWUvR0uIr02IOW9lhvZPe/2wj0Ozym+r2gLPiTSF7w3cTU+7LL4PT22NT4zPvy9NhYKPZsiBj5I5t07aN/8PIN7Wj0mX0w9Rs7qPXyFdjy0gJ69h18MvobaHL4P9dg9QkLqPd+klr008us64mMEvWXJw7xISZy97ku2PCjMJ75fk4i8f4UZPKaeVr2+Ius8Ao3TPVvMcT1DiRW+h8ZUPUsD3bzvjqQ8RdF8PqyTaz668Py96QmbPTz+KL3xiRi+2uKIPRBGJz4XMRQ+CgvhPIthQL6iB2k9dE4HOzoqAb7+lx++CE4bvSUOID7Zdqi9hx60vZ+gnT0pMEI+qZUmPjsYJjxaDT++2MMAPimAHD5i+hy+siAtvl8SFr2+piY+y8DxPWYjkr0CM9Q8BZcrPqdlA75dId49r7QYvpAr1L2c2Zs9DT4uPRjGyj0JZeY94GoAvA+ryD2DNwi+R9KoPWo5ZL5ESUK+C2KgPX8fJj6x3009WznTPds7KD5JN1g+h/hFvnJaFj4sZAc+3jGlPWCdET59kz67e6RGvunkOr5wI/g9xJBjvG4HVb3TUWY9ZvoLPiJFLb6lnPo9B+srPb9gRD47MT2+puVVvf19jb0eyOe8qzgmvhzLMD4Tw7S9g8wuPjdIl727+eq9qeNdvMPEDL6S/Uy+fsInvrM5Cz5HWEa+qQQSPkvW570R1rW97DLuPfd6/r2/+zk++6aVPS8OR76gDCe+v/BAPsNaUz5Lljw+A2omvf8GSb0v+HA9WKPEvCWIGj7HtVC+gpdFvockOD65eK+9TqA9vUTbEb5hd8494xVYOxYeV74ojZc9EZipvTiygz2aOOs8gFAbPlKM4725cDO+gD8pPmE2Bz6x6so7sR2sPT7Sh71NNDE90PUpPbNPcz2fVnI90tAYvm/7GD6Nf6C9NF/ePQKb/byWCiQ+GPIHvfKYJT01Gv097ysDvoztt716J7W95yzKPWhG4Ly0LhM+BtP3PWm/Gr7Ugv69lqvHvFo5Fjs2fzS+kEkQPkjQNT1Ya4E9s+KFPRjdGj3ExCe+WLqHvRwo1b34LQU+MEE9vprKf7qKrRM9CRCkvdEf071KXa08j0ckPgU1I77R6ki+8wnEPa0UxzzxzBI+HVAXPs+Lwjxt12I+bcISvuRqCzzDRjK+C3mTPQUoIbtnplK9zaimvbDvPj7J6i89lwr0vbcGaz6YtpG9zdC1PWF5gr4z/Py9PAfkPPhbhb0Vndk9Ves7PGlFFb6RGOu9O/KoPeOYOb1yb1s83WOePSei/rx51xw+6OHavfWGDr6vsjm+oBVKPuu21L2BXvq9FFehvQIM170PdyG+ijD8PcvVtz0dPiO+T5BkPEnfPb5ZERm8grOPPZVHUj5Yiny9oShDPhr3D74vcNW9DwXXPALSjz3rxGK9q/jTPVUnir3IRma9aDvZvU09nzxOZ0M8RIG9vZnNlr1KesS977ndvfKgmT0/GiU+E2gLPg/PD72doxi+3pcqPrJGEb0tHCK+/t+lvW8DEL7rVhC+ff/1PO9ANr6ef169UnFXPdh5wD0IVlA+21KIPeYAIT4pS/w7gkThvMA7tD1Z7as9Xh4tvoCqcr5Chgs+vONLPqOOq72hSf69KN/qvcxt/rwa5GK9UD2EvTgHCD42Gf49GnUYPps8VD7cPF89jz4aPUVl4L3WvUg8DGy5PVUd+TwcPtY96gTDPa4WOT5eNDw84zETvadHCT27hgW+DISZvEsxmz1BLjQ9bKgNPHxQGj4/PBw8Q8oaPkqFtD2d5Ts+sN5PPvzjR73WAM89FOo0Png/9z2IHjQ+KzujvBb6Kb0DDec9/UIjPZ5V5D32Tga+8L//vVhddD1mnMM9yNg3vP3Xgzwd8OS9UTbPPczhiLsegS4+eNuJvU2uAb54Oyy9L5UiPpEbIb10pJg7OVClPVNpLD5uWGy+KjhXvNC91L3EUBs+L5r3vDM3c74EIVO9Vp5tPq7l1T2I7JA88pKwvVn03D1JV9G9WG0SPulP6DxoUZ09W2lmvWMIprwIlc89o3DePb5FyL2I3Ee+WZw6vSSHPj4Fxds9Kh6dPYFjGj7xObE9XJzMvQm5hjdXNgY+Ez/zvV8FEz7l/YU81NtOvvQzXzugBwQ+clQEvvtWCb39a8a9NS2QPf+GXr2Ub2Q8fSOyvPXibb3XqCu+1lsdvdLu7D0bnLE86F8KPgnbEz01nCM+E3xYPXu+ab5qfSk90yEavbl2Oj4Yl5k9tsqNvcEapr3r+Mg9iNyGvW8gjbvZDPE9u4LevHSiqr1VG1s8++1wPnhwZLxXi04+1DsnvfDqpr1UDg89g6nGPT/GbT2R0iA+kG6tPQyZmL3OwFY+Vmravaqjwj2gVEk8ZruEPe2ZmD01a1Y+y2UEPcLxq71QL4Q9hp8iPuKX/j3FfIO8CZd9vmlzv7zLVq67SKWevSDieb5whBU9AKwJvmQOKT7d/0c+noOgvPCkvD1yd0O8FLViPBR0Oj7cqgo9GsgfPhMSMj5pl8Q9A8usPNDxmL0t7Gi+2X8nvrJP0T3Iyyc+oKAkvp3mNr0zrw8+eFBcvdZN3zwaiCI+wzf4vTZ4hb3AfJs8BeuUPb21AT5ybHK+2Z8rvgJcDz1/hL094l8QPqxdGT7R5+69lanRvaBcMD6hmx4+BK7/vXF82z1lfy8+DJUfPkTAUT1IbY49NbRNvSKs2D29aNS9pBxcvgPEJD7eyX89zvCXPXJItz1XRSM+OpfWvNaZuL2I1yK+ixwavlhLOD4Zlao8MVNyPaX2ljxtRBg+mVfEvPpU5r0jEeK9I1VQPgzHNTyhmWi+WjPXvUZp37066ES+gQCNvWFYKD2lhpO9XG6fPSXqMD5Iys89LVdkPQehB73uGHo+izsMPtYOI77eV0C9QT/nvKyXVb0gP0y+bFO7Pf5fdD07b9E80nodvkz6jr1R8xQ+FBmdPXlojT00T7W9cEgXvmWswD1PtBe+bXv1vSMrCT7W/aS9+kVIvB3qzj0n6yW+hAxMPlx3Tb02X1K9C0K+vVKkCb5HmHW9GUFLvmfClz2PicI93PhvvGRNI753h1O9Ay3Duv4tojyliRw+Du+4vYPpyL0Oan69QihLvdVXxjsjyP49LEsrPi1Yvj3ojjS+FeXcvdvkMb3Ag5y9ayXEvWUx2D2cQYE9GcjlPU4zt72nGEa+TN9Evml2nD1q83y9rrgJPl4kFT4ePgy+OJqlvQLRCb4x1vY9g/AvvBmNaT1cd609fQMKvUEdGb6TWeA9Qx9IvillGb6qkJc9ekOaPBhXBT4X0WK9gAgNPojfsL2zeNw9gAM7Pnozor21tgy9JQMpvslxaTxkD0s+xKY5vAjvSr4Rxfg9/dJ/vVPSNT5BMRE+LIghvsvwHr5LH8y9wp+3O0hU3jpfcig+wIsHvpjm9r1va+K97Mn3vdgqG76INg2+o/UdPlm5Mr5X4Aq+kPjBPbjp/T1cWxo+Xcc3Pr6Dgr1kEH68Z9c5Pinlqj3W83o9LnT9O8mhjr0vlqY9m58gPuZ9wT1mbaC8g3AYPSWewzzAwiG7JXUePccdV718dym+bpt5PdomiD1SkRK+Qas0vQLZi7yY9zw9zucuvjegxT1+pss9O+QfvpVfMj7J3E4+1Q1hvVdUoL3hd2Q9arM5PjZW27xgfAI+DDI/PSmIQz1Pme893UJNvpbGQz1Ly+i9irRBPt0exr2uG1w+mJZJvgWcOTyVC04+dBGdPednPD63TQo+AD/xu6huK71bwU8+BjPzPUQQOr4i5to9XuEDvvKZnr1PfC0+6wDivathFb7++ao9XHN2O7ezWD0XAyk+a6rVvZ4NqrxPELS9oXoovpeIEr4U5NU9AVhEvZZkuDyI20A9FaIrPvcR/L3ZN6S9Qdn8vM1XvT1X+iw+mpBHPqFfMT0IOSc9mZ+Cuz38zz0e4Si+R9EHPAHQoT1JEjQ+tsrjvCrXo7wYrsY8LXvbPSIsxj0UgWO9AH4UvnUUPr3P1x6+wQbGu9xuYj1VrUI9id6tParqLL6r8Ko9gt9wvZvKlz0PKRg+HFHivdHoEr7WSAO+pv7zvLIjRT6xYtq96G8rvn6mpr3vYk29vGONvXcLQj4ym609CdMivluXDr73/gi9E9lPPQYWH728VWo+466Vvdf35z3BWDo+B1Ucvv67Br5cMgm8A1Ekvl4J6LwfL0E+j8GjvckgNj6voKC9+LxZPZyQLzwJ/NW9hpKzOpWn571tzUK+wLtCvv0GjzyXQRI9psBRPrHw+j2vWtw9woBBvijTJ77AMwe91ebEPUu7Nj521DE+edwovm9E4r2qaow9eCuVPMItZT03DoQ9SaMxPqZ2TrxYKDe+9o3VPBnUK75g6Sc+vMBPvfDOfb028Pg83p1UPaKjET0tUyo+AwhlPaJBHj5Qr169H4kRvhikAz69qK29t9Y1PQwqub0HCOI97YOHvKy8Hr7tC8e9hRKnPJrHXr3e+CQ+rRSgPeoPPT0q9Ko8NcxdvOdSrL0QKq09by2tvclIH71luAw+MDsavtW0xT345Mo9FpAjPLqhCb736g28aQ28PYZ+OT57C1g9pk6hPYff5r13zAi+y9MTPfyZ9T1iHZy9HrmyPfviXT0CTie9Cg6jPZfxoj2ol6u8GAtPPmWgKr3T5K49BpwyPnSQ8b02G9I9LMspPjogcL3iPX09mNsaPifa5j0y9Ym9sKv3Pdwujrp33rS9nU8XPi0hCr3wGIO7qMeLPYWjMr7QGyK+0VMFPFcXAr5BtPg9UhoSPSty7Lzpylc9IG6ZPeTdHD4FBz49yLirPQZCGz6VHBE9T1dRPrbCmzyFsTO+OO3xvaBaMr2wxKS8fPwSvk0UwTyezxK++1DbPd4CZz4YTCi+DS57Pn1OXT5oacW9NDsDPfI9YL18srE92zotPuoSZL78kWE9L5lqvUVtiz0S6bQ9dKGuPRWrET7t66Q9TGxcPTETOr6p4lm8zBkVvAaXCb7kAac7gTBoPqhmFD7hlS89DXrHvfSRJj6X0aU90j5yvSB4gT2J7Rm+5XdKPI8RUj0SieG9AMtwvQ2rTDuTFg++xdAkvvkE9L13NE68ZQBMvpoonj1AWac9wtUCvvFe4j2Z4CA+PFekvWkEXL2fcBq+pOcbvvB/5bwGHSe+KN02PgVrmz3LLFu9E2z4PYvYjL0yxwu9qZtcPtgOGD5lHHA93MYIvogZpT06lM096KqoPOaznj3Fy089BGWovR1xCT6H+hq+gnXdvTXkUbt7Vzq+r3jpPbLV8L3YEQi8meAHvRV4zzz8RFO+SYowPvNQTz7nCX89rho3vXP4xL07yx8+Lqu6vMwbIb5lFZY8SljCPR64Zz0vfKq8zLlKPkIAMz4mPZU9LV8LPnzgyb1fJJg9o9j5Pa1jHDsUdwG+IFbZPDm51L0eLt69q2lcvFbGbj04pAU+M39fvvYNVD0FvTQ+kC3Qux0lM74vOCm+AdZCPJpFrb1oqLA7HNcovkZTPj0oVXC9FEdDvlwKEz35tz4+kjrvvTZ0szyxI4g99NI0vmn+rb3zv4c9BtI3vkc3/r1W0/89lJ0QPbm10b1iFB6+5ZEXvuO9gL5YckA9aGhTPtL5Eb3mdGU9lGfbPWAnsr1YsLu9dQ9svfkP571G7OU9QuW4PWfZOj0WXpG7xFxGvr0Gxr2r0dy9a0BUPXU4Dz6v1xM+0OpzvoUskD23L3Y+1pE3vmEYKj76caA9YwFwPSLBzr07qRa9wscpPqYZMT46o+k8UhdyPoqPYTtOzSO+KHj1vR9sIL7Q04Q8VjZevcZ0hLzmasI9kOZKPk+2pD0THSG+FQ1VvjG25rxPYym+ZCjsPe7GK7xvUaO9nOQYucxHVD78Yju+Mo0tvSiZD70DEaM9N5K2O8Rxx70UINY8LxxOvn+fLz6mnyA8+4vuvHbbC77Kz6A96MAePhTU8L2HMQC6W6CoPBI7ML5HUp69L/LiPR18IL62s9U9S1SuPd07I75ttC0+1wpBPlow9r0lXNm93bsnPH8qE77wfzu+EvQjPn7un70aBsE9Gx05PgcG/T22NVc94K/8vFK9k7u93/O9GsVWvQdqFj5ULXM9xMr/vbrz4bwGJgs87Ng9vee+BD74ara9zlv8vSfshD2aIJo9wbqLvd2A772elwM+cjj+PPUIMr6xx4+91lSCvXJy1j1DEEO9sxzBvUtjRz7fcoW9HQVvPuhbfb25K7o9lgJJvmA7Bj3B2xK7m5sCPoDLrj1fCv49IGZrvsh+RD6q1eY8hVzdvQOX4z0Q9G++OqsUvtMz2z2RLCU+0Dv4PctM2Dw+Zxy+bobdurhct70JXL66chaVvUJ+7DwPQRk+FollvlKmJj7yHyq+tQQHPpdREzyYu7u97barPYKmqr1LMdS7kF4ePqXXEz48jQs99FUGPppNKr5Tigu97YCaPZauRrqCwvG9dWQUPqe+Jz0yrjM+HEHkPSvubb5b1h6+UGoJPjbVqL0iPQO+MFd7vvbeCL5YosS9cAmxvVQNLD74lO69WJRLPfxpPD6gV6O8fgztvOasDL4luFc+2NO+PdV5Mr4VmmO9bOouPonVPz6qSks9SMpvvLLakb0bC1C+FuoYPr+Rtr0cM4o98kIDvvyLXz7JQpm9PN/xPOpGF7z7wny8YYsfPi12M73wraI9ZKAKPRd1DD7UFQQ+gTxYPncwWj7nWjy9DkfQPVe9ZbzoYeg86rTbPZTnGL4h9sE9Vg5BPn7Jqz3PPmI9itOjvO3EnD2NUP+75CVRvrOqlzztYig+iVxcPmsrZL4dJAy95Po3Pvm+9b2DR2a94AU+vikdtb0d2Bq+14AJPjT7dL2qc7c9AthZvhedIztIl189J+vjvQWXKr7/TEk+4/0CPsdjRz42g3o+kdIjvgD1rT0ydnc94i6avWZtFj4gcx2+XBYZPn7lqztcDCS+uFAfPr19sT32wSO+vf42vQR/UzydIcU8hBEyPSpf9z2VDh08O4eUu7GckL29sva9ZYEovebKR71edlM+spyJvfzdUb7q+hg+VzSTPWrAN75H7mE9b10IPr1Qaj5yyAK+WqN5PY4EKD09//E9gjBgPOyKOr42gvk7/+QOPqK6Hb5wb8O9fs//Pc6Vor1oArc9w/xIPmWt/D2jehi+N/vsPTIEUr3AOs49BTPjPTzzcT57eBO+1K35vTg5Lz4pSB8+Nvo2PjQwC75NkRG+BKJTPnJMIb6vjzu96n5vPJB9ND3a4P+9KNfWPeFUJj7SoPA9KgVXPNx5Tz6l2o89G/4xvilhsDxZ3yC9H1j1vZAkNr5/jA28yFdfvgCY2728IUQ+RxbFPbZlY72ikvm9rxZYPlow5j3bQ4c9Fr4svuN9HzxY/TC5UoCkvATWvr2aGoC9bpUsPrX0Pj7hZG286pCEvajbIb6Z0d88sEMkvYu0Jj1syJM9LbtjvcAqtj2VHZW7ANsrPj54n707qoK97EV7PVoAYDxkkdE9GEefvNGqAL5bV00+heQqPuLFOD0nYbS92K6yPRP3ej2gzsO9KOMrPjLAMT7K5RY+md7xPMB9N76F82c+wUbJPd95NDwJfgs+6Vw1PjBPwz2yBN68sAzvvVO7qr1qN4s97donPlH7Dr4+qDw9QwXXvWvF17xq3iG+fd4OPq1hPTwrM6m8eSm1PYRPK75yMbo9dGyvvb1dirxamAO+JDZrvOAAU72fzxy+D1CzPQa9E77ZXjO+/rkpvvSc1LsJQxO+eqcQvpeTOb696S0+pIVXvV4vjD2PaRy+9cjWvfYxQD7nkgu+2FmQOzRO4zhQZZ+9shKbvZe5Fr4DBa29r0pVvHrxIT7jiu+9n6Mjvq5l6zwRcRE+wp3FvcNaFT1m3Sa+XfYvPnz95j2lWpe9g6fdvYMj/zxU9oO+wmxCPWk0BDx8BRW+MndhO2TTqzxknza+/aEhPjwnNT3ja4q8SblbvhqYUT7p1jc+uLbxvcEVA73i+gm+gWv7vRnQU77yHvU7wud1PokWQj7+Vkk9vkzbvevfKr1E2AM9vAQwvmf5Fr4k5Tk+P82avVh72D0k3xI96mpnvT+g+LxS+Zq9T+UaPjJVfrxv11c8r1PyPWtGtj17lBM+KOiMvW7hsL0OIpW9cEIOvjn3CT7POjm+iGfgO+cfAj6KL448ZdXHvbPUYj26vxA+/ekXvtvG8j04jRi+sCA0vgAuoL1Qjx++NnHcPVGk/j0nyvI9Y249PuT7tLzlaEI7dEPZPVDkLz2Nb/c9dN6jPZknBLwiu5a94M/tvPfQuDzaTBs9GwQGPp6F/Tzfc6O9krZcvg4M1D1vT04+ai0hvTa2UL5rJN29DbrivIJ5dj50zWO97xiaPdDLg71PEKO9RxDMPbURFL4rVCE+zhLEvWrvT77Mwq49d8HavdGiQL5yExO99gw8vqjBNj0iNv28V+J+vTuTaL27awY9vqOKvVukHr767gW+s00OvppGnbugRD4+7ictvgllrrsS736+3CtZPuJ7ET4z1tI97tfTPbaWUz3Ng9Q8sQgYvizA5DrImeG94d25PXcUoL1AOWW+F7HGPQyHlr1cOie9T4OKvYv5iD3P9LW8768YPndLYb0pj8E8ZHlHPp3nOr5iycg9zZYVvrMz0z2LXjM+La8Qvt2dVz4Jkgi+Kh8TPvrzi7yjUwq8K9SFvai89T0g0Em+2GsZPmqUqzwB1Tu+dL4RvjW/1z2ZvF0+XY+ePS0Eo7zHk249KELhPbt8GD0pIOu9IgsJPh4SCD4wGd+9SauqPS0fSb4SkSc+ie1qvO9DgjzC9G0+i0nzvfmTPT68YcG9vqsJvf1dAL65aSc9YTkhPrg0fz2lOUC+DF3vvZhUXb0leDe+GK38PbvQgL3DJQ28zBKgvbgHBj3sW5K9U9AnPix00r0xY1482hOyPQclZbxe3xc+fFT6vAAFvD3tbC87FCUBvamLML6u/Cw+/coFvmG2rr1Ujik9QI32PQgbUL5QhUc+OJX7PJGnCD2hILU9WpwFPSHa6j1qbxY9MPRVvcMrzbw4F9w879H8vQ6bFT7zNEk+fH/tPXwk4z0ooei9LsHrvR7hWj5yEu+9Loc9PilMKr2F+E499QLsPU79E74qaOg9gtaCPM/DkL2K2QI+aafYvW6KVD5IWsg9TuwPvs7/rr3FxwI+looQvlIuYT1mZSW9wJTPPY1/wDy6sMu8aMWjvbL85T06mCy+955FvnatSj6HRjE+JMsMvvB1tr0uQoa9PXQnPT5T47zhwJM9Y58BPeL1D776kbI8AhGnve9awLxKkqC9xtA8Pt2G8D1GvFY9la4YPa+qyr0vkLW9alMLPq6GE773Pda8kwyIvN9FH71Xgv09mjoKvVBrFr4zLQg7++cGvU+mmb1kPg2+jEYrPhddTz5KpGW+ehQhvl2lljw+xtQ8xdJnvj4wYbx/pZi8o1g3PZPHJT7TI8g9Qh53vXyreD1zQty9FGsVvr/UlD1BiyC+maeAPuc9Q775Z929LaYrO5sXnr0zHh89fpP2PbHcdT143da94k1Bvld8Ej6pA9m8sY5Evg82OL6922C99kSDvf+UBL5YxYs+VuMxPnLAhb3wY4q95LhTPhodqL0Mqw6+iT65PZxKYL1HGQm+O8vsvVijPj6GEpM8YHklvuio7b2zuks97Iq8PavOyzygIls9h9ZnPidNYTzM2Am+PkPEPe0X7L03Jzk9Tv4SPi+CmT2t000+cuwGPXQKyj3pMUM+XYXTvCfkNj5v0FC+1Y+ZvOXzgD3ET1899+ixPensWD2eyhu+xT4pPih5nz2JjwM+mnYzPqMbjz26/zw+eqGavRL9XL0cN9Y98RMpPmronb3EvBi+BUrYvTCl6zp9lkO+Mb2du2HmYz08b0C8RvsAPYFhlz3jwD++32YZvc+njb3TG7I9MEaRPQIbNT5cV+m9wqcKPA92HL6+6QQ9IckavuN22j3/5v69QEuaPRsKvr34CSM+X1yDPXPWpj1za9c8/uEPvtyjsj1S11w+/LTfvdtPfT2KyV09fRwsvT3XST6Zk669BOSzPNvndb3rkbi9ZQ8/vQSjlLuP7lG+v2I2PvvXIT3s9sO8IPhMPok+EL4kDtO9tQPyPPrWgD3otI2+1OpPPiViJr7ZIQk+esfTvQYpND4UqZ69y5IjvTKQcL0sPyS+jcz4vfuChb3NyiA+hI1tPvMDEb55LCs9qyx9vd9oIzzKjma+moAkvrNiRr4/xnI9flvhvUkpDD4WRkg9tWl2vRPmcL1KLQW+4nw3PltL9j0MSAQ+lLwOvW+6hz2udpK9AOFdvZ8fVz38fDE+O8xSvtBRkTxPKys9LD70vOuj2DuxdVK+/QFMPpP9cz2yPTk+4X6LPAcY/73cmzS92zjKvZxfED5SQMU9smwFvK6kirz+yAG+HoY8vnSloD1SegA+yulWvSKMm7v0XJ69mr43Po/oKz6D6a49nU0hvsohqD305s090vLfuxFTVj6lb+g9d7Y1PUBjZrw9+Au+sEntvd4bQb5iJz67BhD4PeLtDj38zrk98XuAvQ6m5T0Bdw6+yUwAO0B7yb2A5QO+OGbFvc5aLj00NsC9P2TQulVvCb5tBKY94I3OPU82rz0bqdw8X2dBvg+qPb5oxQq+NedwPYctHD5bKpk8SBv3vdggij35FW49WCQOPVaBTr6apUq+gKQpPkFJRr6jSSY+l7XuvZz8Uz4ebCk+qHctvrhc0D2HDR6+u5A6Puc9pryR1hI+EE4YvkeeQD49o0I+1oIRvg5Wtb35dzU9AhxwvV5xub2r26K9QCg8vtYC9z2u3oq7bin4vRgKBD53R4A9tODKvfoCPD44JNy9MDyIPX2nLD6QREI+Xn8UPoFpBz1HYTI+7sAAPgilMT7vgIK9tvZZvSPx5L2dfPq9XfwXvlD44r0Sa2y88fOQvfnxpL0qJfW9S82WvZLqGTssUv89l9TuvWeMHT6QJ6i9Fz0jPkpuEb7eC1w8sJQUvgQlLz288YQ9gldIPsO9lj2gPBQ7Z6EfPjSrs71EhGc9qiTGPYL8EL4WukY9TU68vT2sLr3oIhQ+RU5Bvt7nMj4iBhY+2ac0Pj+MOz7Xl8E9O26KPSmcID4gel29gkMEvcBifj4vJV89VKqdvBYQVr1oCSg+TDRePawPET5OnZ69tJ8gvrzaK76EbaS9XlEMOo8pIL6m4kk+5jCZPfWrGb7GCEc967nDvdK8RT6QhtU8DLnsvZKbN76kwrw9XXRGPiDoVbySDSq+w114vbmz2j36Pe28b52RvYIwIz7KvRo9MZE4vojIQT1djZi8xLQDvmgtRzxnZE+82xQSPuFvHL30ZSI+v+9DPm82nLwBr8E9CIEIPipr473KiUA+vjzAPZznND6/yh29ry1rvesByb1d/OE9/mKVPNBkSb77xFI9lacIPhJyWb0vxQk+HkcmPumPFz6zAfE99mefvfivJb4apgQ9x/SePUx9CL7v7wS9qeURvI4R9L2mGyM+C+OgPTDiOT4dGAG+o/9SPqZwr723vaO8O+Q7vYcgI755kLi8PfjavK5IGj5n9xi+qu8cvYmwAz4CbzU+NSO9PWk2lTzmEaG9Z0K2PbOc4j33Z2c+aMelPXlLUr3x7li9BY1WvU8S570rCYm9PHakPal3w7ygVYI9egJAPntR8T012ME8qFGDvQ5kqLxExS8+4Yo7vprAFz5uJlQ9Z7IdvsyYyz0gCGU+wx2wPYXMtDuwfM89F8eiPQ+8yr0WpTo+rCINvmR8Ob5Mh/C98OUJPqt6S77HVqA96ffMO+GBxT01bv69fVtYvjlkG76Zjwc+CnEvvj0Z770QOEY+XXWkvRxAJb60HeY9sPrvvUVdNT5vyQC+P1OLvBmmZz5d8xW+7OONPVcs8z0U5lS+XliCPo/Mur1EhPg7CsAFPQJ3+7xmlZy9Vh4TvZK0XL3tNia+CCttPl9B972N5G6+lZ0AvoEVkL3YNxk+HMlWva/1gT1Pf/09iMEavthfAT0zrZS92FjePV8fPL6jj4k8IlwJPvoELD1bljs+60fvPQCpNj5RFCo+eEfBPD4hCj5y72A98at+O7GxCrwBWVY9gvKIPa274j2LghA+lns6vqjwyT3zhm49a7i0PRstfzzm7ag9GUAVvmOjQD6jsIK9e4E/Pp3vKDreaYW965Y0PDETz72Onq29488qPqLt/j0HShu+PDOXvVT3HL1ZjSe+RcMxvuzZez51fxm+8jk0vkSWTz6PUQS+s3O5vfYbu7wl00I9RGifPVwbRD5OMEa+eIYmvn1bNj7Gxxy+xafIvVcnRbyBjEA+NikYPavOUD64Cuw9eX/APXZ/iLxOAbo9OgcUvsd/Ab3vt109zLl1PNyHvL1jYzQ+cWgivkElSj6JLte9VmSbPbhOYL2LGoM8GQO5vIctFr7CSzW+yStAvLN/Ij6etsy8+lMTPuH0BL7BT4693HUwvgZfvDz7CGY9qQqHPI/NxD1iJyc9FxNLPk3Y0L1FmzK+z7MrPin6Ej7cF6u8LMclvlffOL41Nac8cQqLvQwn8b0HXAu+GJMuPpaIcDvBHvE8lwqavQjcAjxZxe87oS/dPGNdQz6nCfI80VWOvbR2M76YcA8+UzUYPuus8T01dvS9GGopvqUipD3Qb1a9PfukvbWpFr6EltG6ZOvtvBwj9D0bnmY+Qfp/vfG5/ru+3cw90TvKPbxji7yfBrY8ImEQvtlqGL0rsSM92AYgvR0QPL5oyv69zKsdvnUK0L2pgqM9vB4svqd1qL02sgO+BY0BvvrBCj7fFxq+02oHPpqWbbxwV5s9PqmyvGxj0D0Ts/w9W0C8Pcdd570HGMk8r5EqPuuoGj7EJu67swDTPakKorxhuzg9z7YUvnzOwb0oesU8OGofvnSkezyaIxm+F2eWPeHSMT7/Oua9sQUcPEfFjr1blwu+zpA5Pgh3AD1ZWdo99lAavhIjgjyieqc9tSb6Pa34ZT7qLR87qUjtvOUPSD6zu7e9Yy0UPaNlWD1m/+O9e+EoPh62fj3Ai809vRRDvdUOT77rLYK9/VETvtHNKD7W0Tq+sXJnvRP3oj3rNHC9TXKqPV/1HD7pzVw8SzBUvQ88DL78D+Y7h+orvmHLnz0/t7Y9OHckvlftpL03tSm+owHWveuvCT7VxfE9yL4RvaUeRD2DBvo8nREYvnK4Tb4KneI9QRQaPsw6gr0UWPS8zuwPvvS7u72lrdG9o0zXPSsgfb6hxxo94A8evpXGorwdj5Q9F3zxO0Os9L06jT89hHEevq+kC77Q3gM+c9W/vJ6Tp73VN8s9DvE1PmagHr23BQC+08cOvm3cJb6DMHo9jSRJveSsVbwj86U9/d6oPUK+FD7xOMW9LjooPtLBIL6BY5o9/n9svXbzND3WbCe+Fl1hvcknIj6FD4C85U0ZPupHVb3CpuU83Dz5vHvzKr5fzJQ87q2/Pf09Yr0NkS698c9oveBgn72kSy8+M0e5PJER6T1U19u90LcuvEgLl735Vhe+25PtPUJI/D2/lC2+3GPrvW71Lz1ExtE8KQVBPhATOz52Q4o96eU+vgkRNL3DycO9rNYCPvGJAz6qRcq9knsRviGPbT2ee2y+s4lCPos1ID5l3do9O+4NvkQWsbyqyKo9ArOAPbadLD60IRO+1SaYPegBKr6kW3Y9kxKsvBufFbxeYaw9NRuLvbxD6T1rF7o94hvpPVzSjLwcsgY9Yxs4vkxpPb3jjoU8RHf+PStXx72YSuC99I6VPeDzQ74EppS9567nPZ3n0Lq2P9K9EejlvQYuxz1PD8+79kqrPZ2LWb2yuKi9gSDRvWsPAD4LOiI86YLYvTw8Jr1LwHS92HY+PU+U/r1xZt49AOiuvSQgFb48uN+7kdcLPvEusr0PV5u9Ce6kvPCdEb6c0jG9o073vTPDFL0/k8y7YZntvYUKBT2g+h8+h9NpvPc3Tb342TE+TJgFPT2ymD3+GSE+SM7uvX+hDL2tMZA9cLQ+vpGE8r32I/U9FgSGPZz9EL5T6Me9V42SvXFnOr7A3zS8+f9zPTeRjr195FE9xllkPJaCrj13adi9Uv5ovMSnyr0g9cI7X3RoPvkBAT6BB1q8LV0GPrv6oLsPKgW+wFAwPe1x0D1DbAU+V4AaPnTDqb3o3iW+dt9JvSjzVr29mh8+nWdzvQWrRL26Zcs8JTY6Pnws7r06Jaq9HGYYPlQ+EL53iFE+gVbqPSlNMTzLoh4+k4Qhvv10Db7jTKG9Y7lDvsOQEz7BzM+9oaJBvhzuI74Rk129aGBivvVQGT5PuKo9+a7gPVz4FL5Gjum9qbsLvih2gj1IeAo+FOvovXh1JD5y1Ps8sSoUPrWZmL1Lci0+0pjnPbHpx73go609nmtXPWYO1z32L5M9lH+rvd1Vx7vO1MQ88wpZPrEtuL3Rdre9J0BqPiUwgb26wFY+Xf+BvoigCD4GjwA9u67BvRw8pT2+Eam7FwL6vUQ4aryu3Ik99vnHPUjqCD7cEmK+CGwBvopPWz0P3gs+jm+PvZRns70urDQ+I3DkvSyUzLzRsuO8+FwwvrPz/r1SbqA9C7ilvQAqCz4Cc2Q9UyWMPYy2JT4L72C++kdVPWIoM77uvI68Kw8aPusNiTzKLNw98DM0vtTejL3ydJ09iQ5GvKMyXj0fPgK+D3CCvNAJ273QCxI85EYYPZfcnT2zFVC973A7vu2jUT7kJu2749XsvfKyf7zbADg+buiWvQmM4TzA3a+9cE8LvtfNjb3gDcm9+zfbPT35Gj6r4D0+oAdaPk5+Nb5BbTa+L8zUPaC5gj4jA029TbOFvUlakz1r+cE9ka6TvFkTAb43H4O9S4tCvsyU47z7VlU+hoE3Podwob1q7NQ9vBWDvXY7MT1xYFM+BTlFvRNQwD2pLl28WIkrPj1tir2W7xA+cttEPdG0zT0z0E6+A3l2vaIPVL5w54w9mvNBPUi8YT55X+29zlmsPc6Bhb3/+ve9nDukvT3Lcj2cXEm+G75HPsHXq7skRpu9M00tvlgxob0Khdm8PSbYvTDDLL3mPJq9oyYKPqhiWT2AjOq9yjgtvqlpVr4bDwM9EPvCvaEpMj5AIMM7XMAKvvVPAD7ZREy+SGZRvnMgZb7RlfI9YBr6PaeqQT6zopC9Po0jvr3/jb1UEQS+GxAtPhNK+716Qhq+TpfMPYkyID4j0FO741F8Pl/2FD6DLQu+gCdFPM8JtbyeiSo9wqPePZ/Rmr1yhBA8s2DkPeJu0z0NgxM9fJvsPY5n7T2PQA++yz1cPn8DHr4jZAe+F5qEPZMUnj3N0/c9N41mPmu1Oj2A/qa9NOiYPXszJ7j0oaC8DQACPqLPpLw2JuA86IEAvFfQuj2ofQS+PnhdPeXvpD101ly9uU5bvZcUSbwlRyg+VZIyvlo2v70Zk1E8Xm3mPTpqTT6yliC9gYQOPgnCjT1E/Re+nhUqvV7pID274cc9FlpHva2yQjyzFb69FhEVPgfzGb4xN2+96bc4vndOpbt+aou8av1UvVWxKD37VMs8DQguvkNYuzzT32i9MIEXvqYX3j1eFJ29h0boPVNVxD2kdxU+tiOlPSDbybw2tyy+IMJnPL/mh73XTr08rbWNPXdOCT7VJKy9maGZvT2M3LzBui2+XYsPPsHClj2lpwa+RGooPiEB4L253dM83bonPUUxpz0C+ic+coimPJcXvzxhoAw+lAKuPXJOLj53UiK8Ej+EvT7gAz4Lm3m9eSQfvRt/lb2GVFG99IEdvpHOv72iixS+eG/zPPh+wD34bRk+ubZCPn50IT7ebiY9jSs4vnyDBTzd2gS+y+slPvYqfr2gyCy9aiG+O4bygz0srjw+dAMmPnLCUz6qqug9nftkPWfsiT3psqW8kj2ivWieS73ojF0+NEzvvbNpMz3UoRw83UWGPLiqYz2RNkA+ScSDva55NT7gjAe91VziPQOZcL3oZR+9nkmavbf7p72kETq+OXPPPSA6NLx2lpS978jmvCgvM77Gk5Y9KovWux7CpjwhN/a9J7tPPhFtgT0tmV09dk2BvVaVKb4pbpI94ZwAPhKmLb6xnSM+asROPvQlCD0OTXG8vToIPYc61rsG/xk9yrlKPK1PhLvpqRI8+SoUPciu0btISRg9LfjuPJt1x7oZPMu7SriJPGfFEjzmMiQ8eOsDPQaoKLy222C6wugxPMexvDxyNwU9qfPSPDLaTDs+8O4803nKuJKuljydgAq7ZdWtPM2ghDwYEUQ7bnXtPFZNvjtS8AM85pvMPNL1tjxhn3k8Tw/Ju+5NWzvSKig92RESPVAoFz1iwAO8FbVBO7ZfAj23hf08XgV1PJk4rzywzTs68AVxOwWJqbuCDp08qZtZPfckIbw9CMA8AjcAvFsPJD3SkJU8HmQfO9dqDjs862Q8aW4RPClNtTw7rCs75hl9PK+0Fj1ojIe7KmwMvCQLNbxvOie8gvbGO3VnLzz5xi+8TAxMvBgfJzzXPwo9WoTzPBExJTzJ2My8qoOJPeIgAD7CMuq9DWm3O99qSLxUzzs+SQgdvnTH5L2ARZG9nEMQPlA3BD45k5Y86SPzPYr2IT7DaYw8M6MxvsILBr5n+jc9WnNZvuCVB739aDa+XkZrPdtshb2Lfi2+rjlfPV1rAz5WCAw+H2OZvffnRL5yvQQ+8BYdPjHMO71EuWW+R+2rvblgLT3pSyE+azE1PkaFEbxdcRi+m3NKvXNeJL5pV1e+14fWvd73yz0kMUS+ySO2vNsimr2Jkk07+bCePXPnTr05dj4+KC8jvcSTQb6APxU+9MUPPjiiEr7GcPc9KfKIvPbICr1ahk89zYJIvpblD743tLK80aEBPrBxqLsddiW+UYc4PkE7Wj2bquU89TnIvfJwRT7u1GA9khC7vAX6LT4M47K9CmftvLoaTD2wShk+m85QPnu91b19DlK9wyP6vUg5tr0gR729uncEvvuJBb6XCIU9NjeFvQO7sz3ORlS+lpNMvfnCyr0jHOI9PWzgvXm6C757oo89ugs4Pga5sj1zYmI+CUsHPmHqFz7zyX697gMTPmhtKz2kwfA9ViGHvbYsUD73P1O9WTbYPSV5nbvdg6o9JNp8PAPEKL4ZcOC9vUsNPgLI0L2jf6A9QY7DPIkTOD0swvA83/c6PYgKHz6Z2QS9o1rivUfktT3/w4c9DF8WvjSHpb0nMkK+9ULJveVh4z3v6VA+uXtTPo1fTjwyjQQ9HcDTvG2Fyzwtnjs+WWiwPfNNyTxU8iG+9ZOCPXEqXz57h8k9vWSxPdcY8T0x/lm9YYSkPQ8lrb0QGz0+1O1Kvb/un72roBC9x6kfPjmoTr1xaQu94sIJPtpYBL3Q4V8+nWQaPTK2nz3N9By+iuKyPRuqhjsqrBU96+icvdhn/LwwC18+exxFvr63yr16Zpg8ZSbIvX0E6r3O+yO+bkGXPUpHPD41T4c9zdg7PkxtyL0wVOY9OdAEPojhPj73+sy8J1/tvVCeBT4eRSU+KH/tPdJNLz4mwze+fgk4Pn62Wb3Pmz297aIPvUeYXDuj5QC+Vf/WPdXjnbyctUS8d9RlvViy5LyPXik9ya8FPujL+r2Q/s+9CzxvPe7g7T2TVpg9qCgOPmE9hj0/fCs9QW94PZOA1L0W8UG9UPL+veAFmbxTwaE9q6y0PBd4Lj2nNWq+x5ARvYjnDb2txxK+1+jEvUv47TyhEim9HXxKPLXnLr684EO+1k3PvSw86b3+dwY+Qu+lPVu3U74jwSW+EefxPcXRzj28Ye49eMUtPlnzHr67gP094YJQvnIGi711vRM9JdgpvfdQzD2nhAU+ybfmPGk6nzzGEOm9eqEyPmQkMT33Pzo+IAIEvWIJ4z1G4T2+0fwbPsk9B76gTgy+fgYhPonEsr3aDVi+8JV3PXTA6b10kM49CfV+vZP0W75hLrW9C+IIPSYwOL2q6As+6ZDfPfPe6T25Pv09DUjxPbCuhz3Y8xg+O98mPln/1z2f+BM8NXiNvUNHFj7otcK8TZesPacEOL3BS2U9IsHfvPDq5z268R09Q0xOvsbS0b2BSe08tpoDPlamzD3D1Mq9iScMPoCVoz1lMYC9B5L1PRZoITtVkIW9yOJOvWp3rb2SHSK+PZ2GPEhdHzy8Eoc99tUQvu9ypL269UU+f9MJvYUbMb4T2Nm9yTm+vWWKID717AW9+NgmvvbCLz5eXfK8aFspvlqcST6zOfI98kkRvgwrVj79UNc99kGavXMXWr745EI+hhSZvcqNZzxGg0w+CX+DvfXFhr3WCjw+psJPPJJvAz3pbYG9I3YTPgVVEL6XPvC9DfEUPQeR+r3ncmQ8ERo9vlTOVL0H2sI9HVWLOZ5rBb6LdPa8/YE+vacyA74+IJw9eT8FPkkr4r1d+GM98IolPmHqIz78qMc8TSMaPhiE+r3XUS4+0CwTvfyfhjyTPQ8+bZoePisjU74M6RI+xxXlPU3pOz77UJq9rTkOPbCSE75nTP29OZlOPmlSXD7O+XY9SP5avcktcj5ieCC9NLZDPrN9TL4r4CM9I7QuPjNcSz7EyZo97wgQPZ+TA7zVH0w+KewbvUfCLT73sQS+xGEhPXN4Eb3D6qa9fYMUvkKwOT5I4bI9ZYTyvP8HqDucry2+zFIlPvetZryIPI283w9BPpli2b1bfVA+7jLzPWDHIL2udk8+CS0fvuioIL2RKy++QrFVvlIqBD5s/hC+460OPuqsOT4St/K9OCwzvoLQDL71L8u93lOFPQqFkT0PI627C4LOvW4Fyb2Vxws9Jma0vZ6d8j0jpBi+uO3VPMZWtL28iyG+kUlDvfPjND7+j809sFffPcAC7b1PA529T3oqPjKMJT695oI8o/AlPXIESTxnuCU+43KePX6ttD3RRF89SilevT4LBj5m7Ok9h+g1Pki3Hr4Vbum82mxXPAlxB74RON09EwsKPofxx73oeku9MEYXPvs66DyAfWy86MRJPmGi/T061I07YjIavubMLz6qwgw+Vr08viKKJr6Kxrq9D0RGPTw+kr14VW89E9s8vZPIrzy39DG+NqEYvgf8Sz7VuEe+a6atPav64z0WAfq98/QVPmIaGD5Haos9hBjEPR1KL749eRs+s9duvVQAlT0sqFI9NB9ePfLrzr0HujA+5iA3vtFENz4jtQW+4468vXbijz19IAa+0FcvvvZrDL1IwdQ9C2szvvA8br2xO8+8GegSvpo33r0PoD+9zjcCvqFrDT71sAO9t0zEPaLoAryL+wC+AzAwPe8jKj6nrI69RtDrvZx13z1o01A+hVMUvj94cD3L0FM99oAjPb+0prxALTY+ja2fPYV73r2gP849OI8KPoJe1D0mbSO+MJ7mva32ST5m7gQ+T5JePYmPWz78SfU9M7bYvTE3yb0/dV09uzXBPc231z1TYWw9Z9wCPhuDUL2ctwO9yQRuPeBIsj1A4gM+jwcTvS3xVz7kRsC9LmSJvU319z0exKa9psLqPFGWs70HM7g9AEaEPV90Xb47vEq+R4KnvUsB/b3cbM49uKMHvt/xND6jVwQ+1oQRvgF3Yz5HPlk+gF3FO2mcJb51RnC8wctRPYmIHT5UXBc+XpZMPvY8VT6fvD6+rIaWvZuf7r0keHm9ms1BvqvtAL5a4g494tlZPt38IT5iItq81vEjvklxdTzOTxm9YAQYPprWFT4xgye+fxEuPl3U6zzU0uC9Iv8BvE1vt73+Zuw90/p8vFghJz5ZpbS9yH16vcjtjb2hisA9ldyCvdusDTuM5Di+/urEPHY+qz3TGj09gbgfPV2rOb69zcs8hgBbvlVx9T3FjHq9KMS/vX+JTT1EGUy71LvxPU8FuL00gl29PzQLvh1Rtb1A7g2+X0UQvhgyqjxwwZe9yqPYveoxCD6fsh0+V30wPhuBT75VIKs9q+LqPXDYLL5HEOe9/pbIPQ3n5b2+y5694XvJvaqEMr3c/US9EfjXvb06Ez6Nkda7f7kTvi/s9L1uGqu95gMdPthQk73DNVq90CIYPbGe0z3AiZm9DkmIvWlhur1UMGE9VTikPZK4BD5aBTU+CMY2PoLcDb6VenS9489aPgwnP75Vfw0+ZpT0vS+CGTqzKWc+uL9sPAMh6rx75Ku8vjWzPfpEKb6t2z++nlsZvgRFRT7X+Au+3RnNvcMNhT26XVA+iZpEvXxjB76A1Tw+XX0vPhNPQb4rzKe9MSK7Pds6Mb6hCea9TgWtPZquB75Kbr87SWwOvt80JD5qfT++r5wDPi91RL2GMAE9KMoZPuZ/kTxuQXC+1hFAPmffoj001Yk8Fm8xPpjIMb0lgJg9cG/yvchxHDvQVRs+aBmwvbP/I77hHPG9SJ6NvDqSOT2Vp9G9bl7kPc/DM76rXB4+4+sAPjGH4L2yhvs9SewJPt2Kkj33PQe+mwbVPML4eTzAiBg+enopvhIOtrz+OAQ84r+PO0CXkD11htK9Lx5nPDHfnj0u+wG+qHIvPvqvIb6dMBu+WrMYPvHbF76iSgs+gKIyPrFQ572a4oW9Gn3FPWvDMz5OMMs9YrDWO9BmWzwFGRE+aajkvaWkDz6Lm0A+6LDTvVnmFL1Tjk29qPR4PZl+J77swu+9SdSqvW6IMj7/oUa+yuDFPd6sNj6UQhu+pjtkvVcyM76J4ZW9284SvtPRCr2iUTU9c33HvQt8SL5BgFo+oYz6PRVtRzzx9F89JqDovYjYBb74shK+BYcFPaxQ1DxsR3g8IS//O4WqgD3/VVg8P8MpPlwBW73XE789wqcYPVXfJz5tHCM+Uie3O2kc4Ts6LHy9b8ZIvqNLoj1n4DG9A3C3PcrVs73QKSG+Oq6hvVXxCDt7PZS9XNMzPWa7ir07dTy9ebtwu0q2Wz448JY8u71KvtKDfTtvQ988AshDvV3/kry0FsQ9xfq4vaNiKT49ekW91wkGvF0q1D04Eae8u1okvuJ1Ej2jHYO9iBOmvS6Har4o2Ms9sWdEPrdwrr2B7zs9U2Q+Pi0sUb62KrQ9XbvVvX3CGT61fu09rdYlPTV27DzzUCu9WN3oPfxbiT25H8W97sMYPtwSvr2Rbqg9TUQGPgGhGL4gxhI9EGdYvJlv+LwxIPe9+oNBPqQh5TvLFuU626stvgiFlj3qU7g7yxM1PeIa/70sk+49dLRcPupIRL178nm+Iqtgvttc7jzYdFC9Ab6GvVMTT772ZKg9dEskPkQDG75OYzo+hUPQvb6ajDwPBt+9OiErvoEWKL76G9i956puPTwwaz0p+8Q9Wk35vah9Ij7p0B8+PISjPJbYFD6fJE++0zkgvfJcBr6TMTQ+R8kGPgoSLz2iDQ89qV6HPRc3Cb4J1wA+/xf5veWt3D3BXDc9rEPQPbOzuzxrKHC9MtENvZ+yOr2vjgm+EMlVvSD6zr1jfB2+O27pvRm39L3u1tc8bOOOPazYNz5dwIu9B7WUPdFCvz1jdQ0+8Dv7PRJzLr0Qc2S9Uw8TPt4rIL7baTY+wJAUvH/m2bxsC5O9a8a5PYmeHb5dUvO9A7swPpp1Lz53Kfa9LC+bPTI6BT7akiY+QLHOvUhzo725Ui++3JQvPoFLuz1fBms84/YePR3DrbzFFyS+O4AUvlp7mzxrTbu876TWPSt4UTyUBR++6vOKvbSOMb40pyg8BY7wvdEaIb4uW6c88F4JPvHGIL4mB5a8bdwNPC8xPb6DnIK9AjoyPuu4nr0KQSa9zavXPQnMCT1aAA2+3KZ3PQf2/j1GU9A99UOlvRrm8LxeKPo9xZdLPpok6r3Mi2k9ZQuMPesBUT0CgP29M6bRvGHNg72MbMQ9gWXJvInLHL6vhC0+QRrEve1HLL7rHKM8OFsoPpjUJT6/B3s9evwwvoqXnr3NpJe9cWPPPOIXoz002yc+UreRPRbXTT6coT+9iMczvQFXsb2JBrW9xyUkPhLwGD5DHCO+qGztvb9u8jxsvhA9qSxKPdwC+7yjmKc9GMCZvfSPzj1BULk8GDR6vT+rK77s4Ki9A3tFPabDzj0NMS0+OBo2PlJXGj1QPg+8k7xDPr2oHz30SxG+oAEHvkPaWL5Rcp09TL/KvWHVub2M0H47EzOqvdYKiL4kOaA8S0+IvT76WD7FHfQ9i3McPOcCA767yBO+Oj6jvTMpeL1sqnS9cehBPkVHLj4lqls+dw/NvcXBhLzbD6692nFlvvaGNT1Zhm4+ZXG5vQfnKrzZ7zo9tudEvi4/Qr2Zwhe+eg57vunUi72+4rK9B4RHPTQDJD1yrhg+g5NCPp5n7T2M7Ek+RHd0vLeiILw7zW69tz4Zvut+u72IznU9X4LYPfNMk71WdDW9Z3QSPUlDO70IIoq7BNThPeZi9z0BOz8+AFklPRsiKL6I36Q9b/LnvW5NFb7U0DU91R6XvKeu1L3KHmK+HYr8vYTGKj71Fbk9lXvAPc+uPz7dAv69S2stvgp52r0GEEO9v4nfPV2hrz2IAXY+/FbzvK94X727vYA9uMgqvlG4TrzV3iM+fuM8vRUxF76FxZY8LQlfPv4IJj6byfM9oAIXvtvKiTgV7rq9iNxHPR59KL4+/FU+iLMfvcVrHT5O66s8xKBbvCUA1TsxKp49+uq4vQU0F7436ga+YMGAPcKg5r3HQ9m8bMbwvaTyiD2lxiC+j6YzvUb81Lzk8YE91mo+PfZ3krx7az4+ZEBOvSruSb2TMjg+nFWwPDrWOT3m/PO9LeobvhEbKz574pg8tcoZvh/Enb1MJ649RqmfPeaCC75D+Ig91VO0PG6Hijv3Jo09n5UHPnbbCD7scB+9HnCmPdNf9L2yE0E+Rb8ivgjMJr7nkua9zMb4vYgYRj28hZu7vfUdPW2bKz6FeTw+2v4vvtfitTtB7gK+ezsyvrrDIr41PKs9qIwAvbyS7Dqs7aQ9V9GOPT62eDuFiMg9NgpGvqBr8r2XUtC9ELxWvY4jpD1hOQe+lom7vSdfTL45hV28IjdAPCZeLj4graw8/XUYPrBaFT6xCBA+R0sIvodKCzwJizE+8rEtPevimD2u1Pi9FVSUvWZqKruIZCK+S7KfvKCZyjzDzFE+idCoPVMVM74vuSg8Q5P9PfkcTT77f4s8w5Q+PqT6dL12f6M9cn4YPBNoiDyY1ya+QJKgvQcqCT7+Sgo92n4GvgejuTwjnnW9cdUOvghBEj3dG9C98q2IvVcN9T32SC2+4bw0PiWR9r3lilU+gRbovW0XPj28OcW9ccn0PaQCKD5B5aQ9bHoUPRQ16Dxg2By+i0ITvriTQ73ZATa+zjsvPfAasLyOWE4+jNPsvYyz870/dGY9dHpUPmT64T36k7c9mfuIPSxEUT5PUJG92Ly6vXgBOL6wkOM9NVbYvdJ3dj1hjoQ9Y/+uPKnpHD4U5D4+CkBBPvReub1zw9S9mcfovVKGJr2ZOEk9wfuEPdCCF74Jkbw9XFY4vkZqIr0JmqM77YwXPhGbvb05yO49w6WPvXcnCLxAXra9JLjmPXPPVD4Eu8e8N6MtvVgzML6msmg+OYDsvYANITxJqlI+xCKyvY2ovb3tJQa+H1wJvBx1Oj4Akdg93rQMPidarb3qbzE+S4MDPogcBj4maQ++hallvm9xMr3zJVI9dohovYIpRL2JRbq9LN1+PYe/2j3OOk4+vS6LPUAsnD1ryZO9zaYovg2nCD5Ifzi+7TlsPrqI1z2qGD0+W4ghPsXpQj0VCZm6u9PavcGVp70eZao9ITwWPj4a4706RIq9iiuUPLPvIT76Ng2+3p9YvnLVrDw8S9I9BPxePgrhTz6lNN+9Mlqmvf0zEb3vYzy+q2fkvd6Q5jxAMWE+/uqZvfB7zT1DGBs+p+vbvafQ9L3Kn948itYhvrRydT5XIRY+gloePa0GIL2I6Ae83azaPe5xN77H+4A+PiVFvSflJz4+r1q+yg2KPAPOB73+etC9r10gvouAp71NtRO+f2ETPq9C271umsk9vg2/vfgICT6cmaY9IURvPVMnBr7Spse9QrpVPn13W7tZrFI8xAuWPNPSST0YsDc+AGlZvbpXuz3cB509+04kvulyqDylYvK9av1FPBmyUr7D/MU6t1AsPraFAb7r6Ao82YYOPnhwCL76DnU9hfEYvjjaUL5++Ck+lIfiPFoz2zwqJQG9y3ocPtS7CD7HNRW+EPo0PiGA8b0zd1A+GaqWPcyr/j3hoSe+/++4vQc1MD13JC8+kgMavoLz4j1RrRA+zHcQvv3B0j39y2K+3IW8PLoO5T135DY+xh8EvuID0z0K1io+4K8PviPgFLyfKJy9bP5cvNxiGL7Hu2Y+eaImPWPKvDxKZ+i9/gkKvtIzpT0/nPc8k3bgPYYX7D1ttPE8FkkAPmCgfztoPCO+X6D6PFt8Yr1xRB+9ckm+vfgYbbxBIU2+d3EJPehGUjsX1te9TJ4WvoAZzL11Rbs9tSKQuhvVGb7O+Ro9mAsKPUjITj27MSE+G1blvQ8yMz5LP689VgWVvPjysL2Zdhe9MyCkPbU4oL1igg6+YqdhvVv/6L0WWYa9ikvGPTKsKL6Uxgk9B9j5PVMPt70Qof+8iwy8vY1EsL03Li++CQObvYfur72pKO48m7wovkSjAr0iPc+9gA4YPjhXIT4ouBY9XwWGvfllGb7hfOM9dbofvoxxxj3+B7Q9e+iJvTutHD64dk49iKMnvTqFsLxM74c7oSCMPaDwq703vga9BFQBvvoMhz7o+h6+qDNhvVMLej1zqQw+c5DNPZnPQz4SdQW8K8QavkFKGj36Aue8ni4nPgq7aD7oxdC9CQHpvVt1UT7Hwdg9f1ouPms/7T02EQg+ewwXPSiuDD7JuIS9GlDAvMiCLz05wRi+Sw7cuqnJ5jwULtu9lAAYPs4xSD0h4zu9DIIqvusb1r3Nn6K9EZ4tPm0DvL2nNj07NdWAvpK06L1OQZI9fqG8vfNos711nVu9Opd2PmSckT0LLdu98vADPv4Glr2iLaw9eoxKPIqfUD4Q2g8+wgiqvaiXnjt+7Ac+LMl7u6owuj1//Fg9skS4PRCNCr5zIlY+ZqvaPItxjr2OjIQ99vxtvRLpmr0LrEo9x/4RPZxeZTz7LtQ8cfVwO4xhST4anCo+wxc1PttzCD6HpIE9PWqgPQ1SHL7Jh6E9BPC7vA3BOD7u8W88LcLMPWjH+L0B1Bg93dOXPc+yqjw9xvk9SZkEPuAB371H7NU9oE4oPj0pVz75+yo+VCbSPB73+rxK5+u9KM3Su6OfTr2FtfA86RbePXrsHD7t/+09rinTvZpr3r0hNNQ9ordIvaqZVz19rhI+vd4SPlzx2L3D4UC+Lv4MvuycgzyopAC+mMrxPTHXJ72GQpk8gVsGPdAgkL390ja8JW0ovg1UVb7wZXE9vK/3vSdwLj647Dq+1XVOPQGW9zzmWtY8iXvvPQpOsb09gpg9XR0WPg8Osz0CHqe9KiYhPtAX4L1+7Dg9ml1tPctcBD2JT+U9YKYAvj0+hL2zx8o9QPySvUfI2j1hEq47huFwPMjBqr3J87a9bQ8Gvv8e9zyVWuW9XdxyvKtaBr6tksy9o8u2vY6/Fj6UKdq9N4bjvfNKpT0bBiA+zCgeOtJLqL1WoTA+1uI4vvQ2fT3kx/U9ZcUqvjETND2emoe9d2K0vfaGtLyCHTQ9/rI7vV/nGz7d0AU+EqsAPgtX5Lm2FVm8qwcBvnjHHL5N77k9sjg9Ps7/G778ZDI8Z+6MvWXVIz6ouBk8obIcPm3tYD2qFh++6nlWvRgBJ75Vv/U71umkPZVEFT4N2EI9OAYJvDSyqzwYvMs97gSavLRuyT27w7Y7mZYJvnyQJD6XEa09rvlFvmxxC75H2iK+GhfGvXgd+jzemzC+GLrDupuv0D1QQV4+YSNHPmNd0r3kZ5m9Z+apvVHkNj4fWXe87tPxPdPNorz8c6Y9VzltvKpCWTyJpNq9+PI2Pq/xzL2j9Lo82KnbvfsGNTyuuO89r1GEPfAdQT0yTeg8i0gKPqX5CTws/a+9TntlPfMLfr3OHD29mkrDPdSxWT7muge++rG8PTiW37xgMEA9LtEDPhi7AL73gM89MlL1vaEZ472Qaa09nRJVvQ5ARj1ekfC9oimpO+uGyDxlhcG8hVcavYvcBj5aD6Y9mRFQvewmjD51wb699kHBPSJWAD65yGg+NGqjvTZsSLyxY529D8f/PPXWFL7e6us8N+ecPUs5z728+gI+WCNaveQBQL7w2569DIoxvhMogr3fE6S92JuhPQWl1T1VwvC93XuSPCpFD77i1169QQApPlUpV7wbXgQ+NIsBPmYxHb5VhWw+Nn/qvQYvhT3ptis+XWq6vXtg1z2RXNK8f4Qwvs5opj2jlDy8FcHfvTGSSb4ZmRW+dPAWvcYMtr0r3Hu9HCH4PegK8r1xDko9c3sGvjPwX7xPlO89kiyvvZBbkz1PRLo7XNymvC4a9z1HsQS+8Ha5vdVOBz5aKb49iPUVPsMlKD4xZhq9Qow6vg+Usr0GE2k94McNvgiUPz5xWw2+6C8VPpewDz0CCKM9ugNIPr1yTD7FOh8+fDEyvV1+Pr6irjM+KV54Pa1RST2+TCk7F4K8vesxEz4lJhY9/2ICvjtgXT24LJS8J/uDvf1qAD4i/8Y9X0lWvGxO9juKHOW9BllEvkapXb0BOHu9AIm0PScvWr6LzBc+QnYQPtC4kz0aoXA9cN7MvM2K2z3E45s9Yff1vYDhIb5vbII9FKw/vXzR6r1+IgW+L81EPfmJAT7vmO+9GP0zPVmvKj7emTs9iQtbPooVI74pQ7W98epxPfBJKT2Vr7i9F+n4ve+aVD5KUSu+PA1Ivnj+AL6zYvE9P0dHvcscsjzaz/o9a3uVvL1+GL38b7K8G4S4vTMdXz2Pk4I9Ni5MPsy8dz3SEii+T/WZPPpNCj7uGqW9dWPePAAW8j2GPzk+DegovmpuFL5qz0o+ZDiWPP13hDxU3sk97p9CvhJY1T1G6dG9g8nDPdg5RL7RQDw+8pwcPq9zXT2ManM98thBPvQAaTxAQek9dN+Uvejs/L2PysA9y7tUPKu6G769tss94DYVPott8z2y1V48ODwCvmG+aT2ChMY9D2bVvZaZGL7aQLK9v3/6vUp3pT2kWBM9rtYUPJwoJD4BjNi9tKbdvSY/xL3QSkq9U+IHPt62jLsX7dg98e5qu50VYD7+Hx++QoqTvbni9DwhdAe+CgWdvQ4rF74T5QG+UxE6vkhyTb14keO9zvNPvndBOD77b9K9tn0DvqVqEL6DJAU+e3VJPteY4L0ty1i+FZ72PUgYSz7kgQg+PMC3PTigSj7gnB++CiBpPaseQ75YANg850S5PKudxjt4/Yq8WfAfPjoXMD5Gczy+t/iQvWmeNDyfWLG9XktlPqRvE74UOcK9gsqJPSAMYL76ZUo9p49BvpWGET3LLm28sSMpvgOzn7380yI94txDPk6rAr2fPSa+MtUWPRAPTj5qWtw9oxB5u7/PgLzYOVs9MeUjPqbpt70DDhC+YlRePYOcBD4WFf09QYj7vXntt7qBUyw+pwRrvYUJTD4Thgk+OsLFPfTUOr3xLBE+7Ej9vBLK7b3ZYxK+hrpUvjoD17vyFuu8CmQKPsewGT5PFeG9OVFZPaXMGj61yIC9hpOAvaLmkb38eMO9JVDzPTXhmz1/3Aq9u8XZveqkWz4crPE9m26AvQ9sND1Mz4g80n4OPdb4UjzwJM69PH5JvjlRhz0njY07BI8xvKS2D76gaiE934uzPQxg1DzPqhY9PCvdvXx3tL2cKDW+MWkEPgrjwL0bzWi+vMNsPg6Txb1h5eM9mCojvZCG+r05+JE9JKQpPSwZMz6uAkg+bVAoPgNrMT76mIw9VJIKup1roz2xASy7zdFKvl75JD1u9RM+MeOpPci9RT5DDQY+wF+wvMWE3jyW5L+94I0kPvhNwr1edqC9Tzw9PvAAsj2jIko+xcIpvSc/ir0L/+Y9xOzcvThvoD3uC0M9AOj0vXO0JL6RGlW9zYBLvIVG8L2O/p49BHgoPnw+kLy0oAo+lmFNPgzqQL7xd/S9qeYsvs1hIb7ABKk9BjjTPUW9oLwPvEU9nGhAPdaKPj5LiSY+xsoXvpO5Hb58GCe812NzPdU5JD5lHbs9E7iePfFvwL1WhOM9Hl/QvaBww72j3aI8uPcTvp3iGL7fWPm7JI64vWg7QD6Qc5S9/idAvRv+ST5tdw++IshGvXf8Dz6mOh++Wwy2PaAdQL3N2J49Ep4LvAf7JD6zXwk+Vsr2PahFJb4Jqds9ojAhPtKkDz53ziq+Wjs1vmmiG73vsR29vQ8fvvZ7M75qHX69V5pzu+ipdTxJMo89RIchvsmSZTs/QYI8CUK5vS62sD37MlG+zjpJPcW+i7sqjja9Mi/VPbiPI775qFM+KMBXPuqGbz0qCUE+tmilvYdV9DwkMXC9tDGWPQWjYztIWQC+5oEqvtKo/zwEYCu+INoRPnn+PbzZvKu9tUBOvFyjkjwOMJe97DaZvUmDoLxpBDC+yIqGPX2zjb3Begu+hikOPmgNPj3ChIe97vo1Pufqt73cldY88GAtvjCAEz5PfE+7oHpGPSwMwr2zbsQ9KmaivU+Dnb2cehk+UUcIvmau2r1vPMG9zsqWPWHqhb247uI8LxrOvSoCzD3JjBm+VrTCvNZMxz08ci8+OZaIPR1UhD32w0G+hG6LPC3LDr71IUW+QLxHvq7YNb7KqLW9AUnTPUSC8D0NZyE8uAYsPszxGL7tGY89Q7OdvRI4hr0xaQs+G2GXPWUNGj7+zum9/a8Vvl6nDb615cs9Fh3sPCq9GT7pmjI+LzWIPSLvPj7bkqI94l7FPFxwvz25uCk+yIbsvYAV4z23r2Y++fysPXf4Vz7LGpk9jjwzvt1zDr52Pjg+8mN3vdgNtD3ScQe+UEyYPZxkIz2xmqY9Tk+pvDnKIj7c7wU+xTNAvbpO7Luw1wO+1etWvomKtL0tqb291/lqPjFmuT0K2zo9ujplPkE4xT3kXO89ULWWvfW3Ej6gvbM9AvoLvTWUzzwU4ZK9hxMsPpZg3z3qO7a9NL05PhKyCr5c2Gm+mwECvrWsOz5yVV4+rsw7Pi03Mb6WVty9EO/jPTu9oz10Fgg+MbKqvDrqQr6ZH0g+6iLdPa3WRD7nagO+jDkQvqpgCLy6mTM+n1EMPZQkjLxGZxQ8QO+yvGCYTb0N8jk9riVoPsbj0T0GbWQ+C8y8vd5NMj08xoM8ssiiPFxJBz5MLiC+z3a3vG8P1r028zU9RFDRvMqaIj11KQq+x3NVvY9ZGL4u9BM+5XPbPY+6tbzfVBS9327UvIcAZT6yJSQ+2Nj7vXEn+r0BngQ+FazGugP3U77Hgo496HB3vaPnmTxR/eK8jViyvZofibyDp7s9fbwbvHmtwb1pIma9fmgmPX65gb3NYL48AGN3POoUO74EwBk+jywLPfepTz7SZSY+FwwVvkKHhT0oHR6+hLaxvblINT6b94U8uxcMPpi+nLzA7yq+2e6jPFhjNL7cfR++mSrOPRwZ070IsgY+NGjrvZsCdj3/et29OdI7PeNizLxIG7q9O9yKvXeuxL16PXm9q2vyvOA0Pb1NSgM+95zevOqdVj0tcrE9LCQVPskiOrs7+xA+fExyvb1EHT7CuKE9iMsSPtOFMD7C8O29qiaLvYXUFb5vAK09mwiLPWhEnbwe0R2+4pZ2vbKJLD6hDSo+MuGmPRy+1Ty3jUa9vtzlPXsjPDz7z/69kDLMPcg+4T3CbSI++ZrDPbsq9jq61tC9tykNPprtFT59kkY9GaUlvi1XHz79PSs+elfIvfehwr2dXvC9jQYevhcKNr7IKou9j+3XPbfphj31WNW9dYSJPc4WSjyxN+69/SKrPRzlsz3YlzK+r5iEulT4kr1e6D49M0hHPiQY8z0Z4RU9bEEBPh6amj2wQEA+WQYHvr6Zhr22nBc+8swsPsnS6r2ljiO+LBkiPGdi2r1+08s9GIxmPoeNSD0z4Ug92O0qvurPQz5xuxi+V2okPnD2FD7rsjA9wpXLvd3YXT0eZac9T/Irvr3qAb4mixW+Dgs0Psz/fT1fE429izDnveQExT2X0qQ9BrSVvE1+gj1p51i+c31fPW39BL4Ty04+faTIvbeSG7598WK9V7qOvKUxAj49Gim+3vz/vXC9bzy+Xlq+BVeaPapmhr2da0q7bmy2vA5Wij2THjE8I58OPuZDkj0scEQ+g60OvaTQ6j0VmJc9/XbFPRkKVD5mEtY9yZ47PhAZLb2jMN49TeQXPeCM171n3AG+hj+QPOw8kD08CuU9+kWVO6BrkT1cFQU+wppkPpWcxDzw9Bq+ChWMPZgOST76CSw+CNgpvv4EK70bLGO+vZPsPStnvr18GB8+xV32PcHLuruN+1G9uZ7IvVTxcDwPmxi+7/pBvvA6uTz35728+0xIvgYl8j2haKm9cb4SPoIFtL3YTkc8MQeuvH+gcb0Aexk+EjQ4vf6D1b0FKpu9oiz6vSO/Pj5sneY9YG5HPqrIhD19U/+8p6HyO1EKG75z6DA+jvk4vLRRxT0BEhg+kqu/vet1Xb4hiVo+zroGO8dl771fO8c9yTy5PAEGF76ches8tZxIu0oiJ75hH5k8FTdmPafTNLz2QS++AfqBPfGrEr538/U9pSCHPd6worwAG0U+wjUJPv6e172aUz4+225Kvd/1U77zUxu9gEonPr6hEb4Ukde9Sa35PaG/Tz32awS9kVROve4w5btLLgS+qKjnvSuEiD2L2y++ewp8PTggBDzbB7O8ztKiPRwlUz47ft+9B+NwPTKDZT5UWbi5nkL0vGFVMj1YzJi7BHYkvqZj2zx85oE9pAQ1PghSmj0BE7c9JgVIvePXozxB9hK+aTbovUeRKz3eMH4+zFMUvvw7Pj6Nm9A9g1chPgE5k70AT3W9nQglPjRL7T3y5mk97y5NvoCCfD0ooh++k98Vvo/sNb6Dln490pL/PQWAED6rMYu9JOtPPT/eDr4wwRY+9ykHPvynYz73e4K96AkHvj7hIT5Eti++jfh6vBstFz36jaQ9qt4xPo1LPL12aoy9Fl66vQTVqryW+xe+nNo5Pse+zj1VQ2Q+aiBevjJ8PD6V6LK8TvWdPdrmxj0y8yw7SuGpPYjNPz4BKrU9aQn4PVvwyDyo1Ru9GIC0PWmaiL0VhxW9N84HPlLlND4fVDa+WK1jPpP9Nz5jzUo+1B5WPiHrrzzDyEC9XQ4GvqIPJL6UPWA9ic8WvllwGD5UU7M9URr0vUnWqr2YSxm+6WUrPcTgAj7zl7G91yFIPZqy5D1Ub9S8nQKCPqdZbj7oaVO+OthGPge88b20yxw+H2ufvXjuI74/dCC+M4cSPYLGVTxdyLC91GgJPo4t071yC+889wpNvU9w/L3oDKg9nukCvIhnT77VoV2+qCRTvoZDL700EbM9hIl7Pa/qwjrc5ZQ9RPjUvY4nBj3OYh++4NIEPsIf6T0Sm8K9YvEEPsbWqb3VeEW7uXvhvdsMUT2iBIq9AmewOs35bjyk3BK+4C4ePhrozz1mZks9DSMxvqg9QT6GSaS9jj5VPqtlRTyV4e29VaKKPayAEz1VK12+3IcmPmNnJD5JHyO95Oh7Pme9hLs+X1s93PWrvfKOv71bezm8JGcmPnC4IL7foR4+QO/KvZpip71Cm5g9Blwpvq2BfDuJYRo9a3lMu2uEYr1zKQK+np8EvZhfPD1qJfu9HhwRPp4E5LxK7zy+74VjPlUKR7wFQ08+t4VdPnhFEj4IlfQ9KsETvXFWyb1lg9G9BrN9vZ6Tnz2Japu94HwJvkch2709uke8AxSOPGoXSj4vAVK9VTojvQN0Jb6p9i6+FDztPYDZWb7lp+29fYnpPcL4rjvJojm8/Awpvu3/mD1L/489N3s7Ps5ZxL0kVCc9yOuLPfOFXT2viMK7CeLUPSHy2D2db788Fq5NPv23+D0hYY09MlaNvTydNTw2XuA9l5gYvpcPU74d5887qaEBviYWs70vvQ656iyJvcR9Mr7JT4i9KhiaPVv2SL3PcUc+sg/UvbOoyL1YnIw93D4DvsmWKz5iUy69S88aPGKwq733E4a8QnPXPWYp+by3M6+9Mz0OPnmPIr2BjVE+WBD5vN1TOj2i6ie+4ZoKvThDkz1zmxe+mvRHvrXtc73S5ZE9krsMvlPvJL5apkq92x3uPb7jo7w/2gY++NwbPr9QLz6NXxY+VdGTPJa1Przy3YC9Ka6OvQ5qwz1T/DS9kdI7PmVPCrxEwXa9TgOHPZWyNr4Ym2s9GC89PdiQV73vOO69h3QfPVS/lr0KXX+8Qn0vvuEJWD1HMy6+sS1+PeByMbtz3tO7t6cCvgc9W710JqW80NgQPrxhGL4ydBS+GV/yvYD1Mz3Kmfa9I97ZPYlQArzlx0A+bpmlvV0ukr3FDdC9t9O5PHjvrjsxCbU9NpffPQVsJb5aLai987oPPhr7Mb7xby0+9uDNPUZUrD3Spqs9+/YePqPxYj2VwAC+Ev0xvcxKIb3Xslc9X98cPksyMT6da6E8JToxvh08rz3DG389GVRJPnFoYD4PQqE7NXPhPcjj7bzYtfS9dpkfPfG4CL5LLUI+5hVnu5b5Ob5OriG9LhMLPvKpKD6O3gC+ENlAvrd1CL3WmdM96W5EPSVGIr7lvhQ+NPQ3PnfSCL5yYim+9a3NvWqV2b0NlT4+MRgsvpq8MD4V7VA+NGtGPSrJJr3Ih1k+6bKxPTKCJL6H0zm+5YurPb2EHb2byBe+7aMIvsnE473MXCE+HlGIPHwOz71NxTQ+IrfLPF0+SjwldSM9UJu+vfWaJL73gCE9KYLtu0tWJ76mLia+pUUtvgaFqTvDA/89RPiNvV7oi72wq9m9cabmPXA85jzuwb29QxgvPunh3L2JmaM7kHUjPgZ3fT7XxhO+1F8XPWSdzL1xjJ89RGvIPcjp7b3xSAs+rQAQvkjGs7zWmmg9YfdQvXFalz1orTQ+f3bBPDKiJ70S5xG+K07svVkPA76pp5O9RbWhvQ0lNj5uOxg+RspKPYeNeL2e1DI+wYCQPfpCTL1V9SK+VIjiPX1D77yJ1Qs+T98bvvLSajy5lI09fIoDvkTGjb10Vwa9i20zPv+IsL3Wu9c9kv7zPeqEbj37p8s9VUJKPg3rurzPef89HALcvYTQgr3NZh8+dvjivU3Y0j2eyq+95l2lPWbi6r214ik+W3s1vgdOnz13fAe+Z0sTPL0kF77xFI6883X3PXFyQj0GSvQ7/VkAPmVPJj4oe+48mFTvvbZZRT3ajki9PqcnvvvIyT2CqAs9Qj+VPHo+1j2zGvG9j125vNgb1T32sb+9IwGhvdhFBj6ugA6+SvsYviWeGb6HIyw+cSJJvZnybL1R+Za9Ul2IvfXIWj6u6Vw9TXMaPtpLhT1WcNK9W+UePtFwzT3xzh8+gw+MPUF2Xr0/2ww+8xv9PfIyNj5dllg9JLXAPPtow70y0Ng82ooxPYpkBL6vCdW9Q9qkva2dwjtLfaE9v97qPeyXQD7QBrO84xcgvmjNA74uR3w86OViPql8Gz6UayK+3UeBvT6pcL0Rq5c9MdgWPtDY+Tw8hyk8sV9Uvh/qIT6Ii4K9CACfPaqfqD1hlMS9LVrqvfP0H7weaC++4TNovF4N2b0r/UI+O/onPuLyM74YIgs+qg1cvY3bgz1ST2a8J3c7PDdM8L1YWBO+ZqDuPcAXUT6gqJM89z/GvXgwhLyZPFI8BMtsPYzsHL4Mgja9IWSMPakYtT3SvlI+cFcxPU83UryuZiI+hWZRPoE/x70fCpw9wOIyvmDFUL31AzI+n2lfPVzmAT4HfHk+XSkuPgrkzzzrl6M9UOdIPl7mpr1v/z6+jooivlHso71y6Ds+Co1OPtXznL0RkiI+NdgbPvjbN75hATY+0BR9PaXepbuJlYC7A8xIvc1MpD3MDts8+cWovdHGEb5WMy69gkUrvsANDr6EPfE9FoUVvrHxBr3LWFg+6Zo/vsQlyD3n5DW+mUhzPZPLaD1X+Y09OoGGvVAxQD4T+P897ahTPvhnn70Odzo+GB8rPvTlC75+IlW+jlp/Pddu3r2C34m9UYS/vEl3/Lx0CDc8h25SPiO1eLz9KDO9GsXTPbozGj7RPw8+PPynvQOPqz2dTZi789K7vQFRhb3F2Ry+C88wPhXtFz5XKDs9uRxDPTq9j7xAeAi+FJ8rvuGkYjvoV0u+mWbUPWxDfz3I9J48GDkaPioPkbwEr4K9spkmPlL8sD0wXJU93JAKPgV2ED13cGs93Ue9PTVx/ztF7Eu+TA4lPvEXLj1LSKm8GOYQvt2o6LvAJ8G9bmRBvhNMoz2ak/a9dF/Iu8+eRD4amSw9g2G1uaH+AT7QW2m79fDJPJGfmL3iS+E9DBc7vv9/vLyuDYe8S6U1PdcSJj4iIwq8Ls34vXw967yMVxk95+rRvc5xjz3B90E8W00APrJbyj0OPzE+DBWRPcmarb1/LRs+19kYvgM+Gb7T9q09EYQOPNF+hT2J0ZW9NF+cvZMdOb1WeEU+iSwIvjk8Vr3AwnS9mxZYPi7xlT3904Q8McEgvm3I7TwA6H498D//vYLQAT6YEX69BknxPWx2s7yi+eo93OuwPcm3Bb6Soog9oX46vL89Fb3XKZQ9PDX/vT1/3r0MsBw+cEEavo/JHr0t4zQ+3mAxPTSCzD2ny9K92oPAvZFO9D29pWO9BbwPvWpGjj3z7ye+ByNRPtqsN74PSWo9bg4cvsrc771IkQg9/t5XPYD4B767nSw9YWtkPpClFb7S9Xm94quXvSyQyL1n6q09XvKFvXyKyLxVaFo+naMvvvfDXzxyv2I+f5iZvVjSSb48RjA8IOlFPRlgoD1WqPS9n9/AOzkTKr6k+509vc7lvewef73DkVC79vALvsNtl7zfGF69jeM0vgNXGz5Kxv29PnDUvRFmBD15ny8+R+YIPoRyGzzEi6W8eByUPOjmBr0i7RW82L6sPXdUKD5Jpgq+EuMwvtmIcj19uDO9m1Msva0Ymr37/4q9KK+5PZ51Qr2BIOu9GzQgPuECSz7PXQm9kLr6vOasKT4KPKI9C9QPvjkuBb0NKWG9510APYfUvjxbEPI7vZ5SPhsnvLx65gg7XYtJPsLvr7yoXug9DMGzPIYoEb4r8fq9ej28vTELNz6SJC6+K0sCvhsWUD7wfaI9okpkPqOnkj2TPDi++kYlPlW12b3GhyM8FRzQPZ3EID30vTS9ALIFvTWD87wRN9w9KXl3Pc/gvb2bAgu+gjGzO8psJL6aLiQ8xzsBvjLwmT0kmRW+7HXfvXBPCzxXj/e8YqndPUzKuL0tyB29xxPfPSNl/T3IRh49v3E9vqwaSz5Uuuw9Vjs9PonVb72vb4K9iM+KPV0XYr6vbK09/XsmPWnLFT12uwo9klQ6Pe/iFz27Dk6+pyuiuo7zwb1TD829RfebvBhs8D1RtAg+8jogPhb4Ir6XzT6+JpRjPC62Ab57Lyo8DF4HPiyiTD4vSOe7Me2MPZImrj2qKqe9dkEHPpJYR74X49m7wbf1PYCpST3D1+k9la8Yvn5BOb1XHMS9X3qyvWzPMD4JFDM84SL0vBAMML42OAs+yTpMvX0w0r1g3Jq9aWB3vSeQ9TwLbXY9WWkMPSv2rz1/VzK+PYHfPVhAv71DR2y+VXNSvp8BCb7NPIo9LVrLPNxF77yLJSw+ggiyPTH/Kj5Znik8QrkcPp9RZj4jUiE9+uwRvvu7LT70ZhG+CmwvPrerHb57xO684QGyPVDhV72fC8e9INE6PulqxD0NR1M+baw+PoSNlTyKMlA9piAvvnENpL3o0Rk+8vMrvRsqNT7s2VU+nnkivc5yUj1Dq7c9PE2Kvebz7b09NhY98lDxPObACT4IP9C9dI6yuylBPT4Mwg++I5QnvllgKL4SLsm8FIjUPEv1MT5n9KS9EKclPTwF9L1E6Oe9vF6IvZIRCL6sFBQ+vVbyvQyrRz05ZLS8xVmmPQ0dTb1a5Vs+3nzCPYPkNT7nryM+aGozPktk2T0eshq+yWDCvd746b2Rmzi81oPEvYNQOz4Pxrm9Gu0cvph6wb128gG9yZWtuxEMKD6JI6o9yezUPSYtybzzYh8+BFTpvFkH17w0JUA+6+oXvpnMDr58/KW9mXXQvSaYEz1M4Ds9VACavUkacj2kbwu+nrGgPeRp9L0SI6Y9yHEPvjIwFT4LJDG92nutPbtV4zyuTP+9UkExvpY/Or1Eueg9I5mRPRS2Sj763Cy+D08Wvsf5/L1gVjM+8Jf2PWG0vD3O+dO9IRHZPU6uFz5Otr89d5KiO5OTW74cQR29Zkq4vexcHT3sW4k9mQPPPV7Br7yStwU+k6QDPgmwE74f70C+hzlIPh7yo70grxI+btDsPIjcXb5wcHg9vxdivVsNKj4BABw9KE0yvpNMSL267BE9UHm8OvZHLz47UgI+Zq0UvmHN/D1UJ7q95EpLPdWhLj2TIRc+pycQPpXdqz1swAk92Wg5PloKKr7veoG9J6KJOplOQL6gFFO+dpdRPtgnzzwp8cu9N2P5PRP+1rwVvtU9655YPhTh9L0QAyi+0xRwuyOjyz2Z9Am+fjzCPEoyXj1/CdQ9YP7YuwuYNj283e09iJoTvmzD9DuwZnc7ZIM/Pjdzg7ySwVi97TzZPEYdO72k+d69GjbvvGIwAb0Jsj6+AXL5vQ08HT5OlKK9AB45vrXvo70s56E9G6/7vcjWRr60hks+yLUWPvksAz1yLQw+0kCevYh03L31QBK+JSz5vfdnIT621IO+s0aMPWsTFr5ZzlU81T2RvSLZBL06CyQ+r5KVPCRnCj6lgay9sBj5PG4B/r3PV8a9ZKUKvnl5ejz1EtE8z3XnPS/Hw71GCvK81JNmvCk3Bb0NX429S0hHPrXLGj2btnC9wILPvVI+Tj5YPCC+JA06PvDM3z1n5Mu9PzyFvU7aTz5TiCU+qjFJvihqYj6zJHe9JYKFPWCUSb0gKMK9PbazvEs8MD6xCY49dLXCPcQt1b3RzKS94800PtNErzwiw5I9G8GyvVIowT1HmL48CtffvagHgr3JUry8GT5pPF0VCT5xZBI+FKCEvVgBDD6Phs+9NMoFPOUt/j1cIX29qsFFvbX99T1WT869qBqgPWO1jD1pTv+90qIhvdX17LyJeRW+R6MHPglu3D0FwDk+guaJPSSOiD0bVtw9Z55RPYi7vD1bWEC5OxlpPlFQEL7T0x29ZnTqPV2GKT7U/zw+OqXfPZdhGb61fRs8XohkvSLGer5kEoM9wqplPrWvML5WMA0+WRgDPpFlF77OswC+fLXivf7xhTxlW8C8AGNUPc+to7u724M9ImEkPp9z4j0mPFO9oObCPQ7U4j0ADMe8a+szvuNlX727v2+98KGvvaNMvz3NbEI+7Ad8PVFvF74rRjA9kLSuvbAboTqgtey89qfAvT/Yqjwgvho8BvYCvrp22z0/rxi+RduhvNja+T3DSkI+nVSLvGSc+r2Tyzu+FwyrPXTVCz3DUn+8d63WvLKbDr4TUn490HDIvVIFwrwNBcU9MyjxvX3q970D9569R+CCPPclVjyM7Dk+R2IPPunkNL4j5hi9ZU7qPdMKgrxweT4+IKxCPr9ZPj7xUkM9bEq3vBImB77BjhK9mV8ePnoBy7wNz8S9+7jSvSwoMD4ImwK8PL3XPVwh0D16gq89cNQXvnipvD3MmsM8fkezPSaClT0LE7I9qKCjvfD/CD49Px69VMs/vNg0PL6DqTK+QcAGvsO6hj27WNu9wXQrvmOMIz5rc/K9ID46vqkqp70mZge+pwqRvekPMb6HZR49oIOePfItozy9Q6M8X1QWPl807T2klj6+8ghLPTENLj5AVSo8CUALu1XFzL0LQwy+wrlWPgzqCb7oSlu+nesjPrqJmb04KKY9PKkhvQOznT1ihAg9vGjVPfL8yT39ei0+UiZnPfaHtT3KmLA9BTAXvg0LDD4oMOY95VIEvswAdD04+Ss9eagmPuQGdz0JaOA8nsEXPlE8VDwcA0w76BgjvrFnVj39WvC9CV4qugHlTT73qgS6cUPePcqqOL673CI+/NojvJNL8L0+lMc9bvwovtk++T3BOyU+LJkivspm+L17UEE+cEc1vb0/fb04mSK+CEy3PHgeXL3Udpu9hFocPSvBGb5XffM8Fdd6vPtzvzxH5hm+A7I4PJlMlzxDmLi9pYEDvk0nFrx2rec9IWLLPYLl/r01r8U9rLLzvUaACj6EKxE+0uKtPAzK+r0psiq93rC1vAflNL7+rIi9cJe7PS6bKD5pJ6M9Nx3KvOQLMDxjfbQ9Dk4dPjHHAz1NwSm85J4jvUotPLwUVkO9h4zUPbfPDD6H0lo+FtCiPZ9yGD4rnTo+WFSgve1DLzz4WAm9//q2vaEwiz3tA0Q90dtCPdSxxT1DzIs9zq2APeRaDb5oNhw+AtyBvEzP1z3rcP88xwYRPaoSJj5KSQu+knnGPUfGFD0Sv7c9aWEjvr14Dj5ZYfo7LMGsPfnkirxpcIa90toHPd69Dj76UlS9llF1PWH13T2a+7m9soIevu2ow71G4bY8IPA4vtojm7zDxTE+/FOsvCha/72Ware9lVdSPb0TGD77JZ6993Mgu7YuOr4ojg2+GKGtvck9Pj2i2Jo91aErPX5sLDxPZwA+oMNvu0eOAr5jrZ88vLAZPiS8y73zEq09hvSyPV5eIr4rUWA9BcsCPpLvyz2lATU9u2eWvGN36zxwWKw9MVs1voqKCj7FWDE+4dsiva4U17yF30q+F2rGvWzLFj4CeQi+5Ey2PPOdH76skoQ9Wh+gPaDQO77K3vy9GbkwPl2+MT5JXb29j6CaPT0lAT5iJB+843uoO+7EJ75wmzo9XGzcvbS9JrwKQQw9D8xBvcuYDj5o+H4966rlvJ+yl73Uq7s9j5AJPj58IL1xCZ29q9UMvRGFgLwlt7e9GOm3vX8nKb6pJiK++70gPl3S4zwCoca9CDLgPdZOSTz9Sr69pLwGPo1SSb6EDy0+zdzfPZLqf71v11Q+Sx8nvnh08L159yY8ZguzvF/hEL5TKTG+hU38PChBAT5eloO9fDUuvXXYPT3/Xuc98H1qvWGsOD7cvgc71jSHPbFTDz6h5Z49rP4tPgYYoL08alC9t2cVvq5DNb5iS8O7SAk0Ph58ST4z0P+9oeyqvcZfz70Ieoa6uWyJPjdZ7T0GM4a9RN49vggXRz1aFtQ9lUDovGYp5zyGg909WxwQPRkXmDxRDa09UiqWPTvZuT1Wj1W+jU3IvRBUOD7fJ4O9wUUPvpzilz3wHgg+9tMhvI5/aD640YQ+XTX2vatO4TvQATI9b7LLPXCmPT4U1r49P1E3vlGFUD4s3As+4eHVPSZ1xr3SxKm9tloAPpgwpjw9s8+92wC1PdcOUj4shx2+8asnvjOyFzz76/U9QGIkvsprWj4nH4i95au/OlwyHD7UkE4+2YCaPea+/T35hW0+3AqAvffWqL2XZgU+lpMhvgFV7z3dItu9zaJ2PeJKvTyIbqM9WLYvPhM3WL5wjlk9I/Y+PS6IWT3qTuk9DIqzvIv4pL39jP08fuaJPd7F4r1jd/A8f9kovaBCJr5kYQS+lFjmvfeKAr7qBkw9Dt7EPapucTzZkCk9FBzXvYXxEj7Wbeq9RCXXvWVFHD0KRLa9ifkSvgQMNj7kwD6+0XGgO/mauD2qAxw+JBU0Pno5Nr4EHK491hIqPsRGoD1hQcQ8gyEPvp+uGj4en589jT3vPCl1RL3Hjy08DEEPPnGK0T1RasA963dLvqznUb4KzXW7cxMTPAxiED0dyM89vEYSvBR6Tb5wGFS+5a2KPRAjszsP9hG+DsOuvQEaE75Ph1i9yqDTPVjz/7zsNFm7WyiCvebtBr6nRwy9J+bAvYuxFb2M3Tg+ib9ePfIgvDzOKNe8kOXtPAsaXb2HMY69JjbpPbkmYb4svPM9aZ4hPX2yMz7FHiC+CrRKPbZZHL1ASAC+ghQJvnAYrLuk+4M8lESLPa4ZibwV59c9Ja2rPbmLjj0msNU9vsVEPn9Bvb2kdhS9k1PQPX1jtT3Y1Kg9F9wovrWx4b1OhiW+vHG4vcpaCT32qJG8E2JlPW+8QL6JDiw+TR8CPlG4Wb7Aj7M9/DNDPPUqwz2z0w88Ax4FPSalLb6S81i94TzRvLl/ML41wgk+z4MPvs8/R7589yI+MACIu4ctAj6Ho3i94KMzPkVl8T22ZZw9P/9uvdlbUDxf+iW+ml0GvrC+9D1Mr2U9XkLFPc4wGz4wl3S9e5dYPelSIz5juey8CAfqPYwB1Lw8Ua69g/P/PXsnED4o9+I9WrAlPioWE7wfesK9YFi5vblZGT4JxSw+2LJhPSegZb2S1So+LjgJvrDB8T1Kcd49IFtVvmbGJr6YPp68zbkXvigjFT2nMCA9Ao0VOm8lIj64XFK9fLeoPdYxXjxkpHg8ywYdPlxTML5BIf6931D9PYBtDj3SlXc8CE0SPrkLzbyIsX899nKwvaSzhT2D8Qq+z2RgPga6ND2AwAC+2g3ovASbBL0ppQS9gmW6PUhXDb6ryh6+xp1nPYebxj2RD/O90AIJvmhg6bxYjLo99XaPvXXzA77DFQm+/gSTPTHw9r1SrCo8O3DyPD+VKzx9pC6+8VUYPh3CJr0UYlO9GiQlPvcFLD1O32M8n4QCvuTHar2wrGY9qRxBvrAtS7yOaUI+J/ZGvisnHb5AEpK9tnEtvczcp72MFjC+comovXq/V72JRg0+rAT4vfX2Xj6UFou9mRyaPZ4cEr2Gf6Q9dya2Pdd+1L0JP7k9QcEOPvM+TL4NF/i92MPpPUDQxj0czSU8g4qWvQsavT0rzC++X25MPnl0ab0GIDq+vIbevLiOjb1adm49J1pUvTqsxL3KsS+7WSwsvfozWz7eZ669MYmIPbaCuj3IVPE9Hty8POL0D735qV48gQVivUz4TT0YkeG9vUVRvrOcPzwGCjW+r0gfPneyFL5He8e9d2YXvgVtrz2f4KG9sUqEvOi20LyU7aa9hykLvvuVxT1WlcI8zL93POTR1T1UnF29pOQXPrr1HD4ZgcC9hiNhPNmuUb5SI/o96JdlvioElj1DxNM9n+ctPiT+Fj42Y9u79jIVuqqD/j2ouqm9B5UYPk2EJz5KoCc9q/UHu1EkKL7t8DQ+usFFva8ylr1OzhI7iX+avQymZTsRcBm8WNDRvKcOEz64foq8q3d6PEVW87w7RxG9eaAdPjjxgj0N69I9gn/gPXQQK7we+Um+t9cSPrbq/T0DWiQ+ScWXvXwlpz2pQo49wgISPmsOt70S1U4+w71hvbZgBz6cQzy+B6XCOZ3HC74cxxw+u0DkPcxvDz6qnU0+GjvGPMGyw73nDwk+j5O8vQDALz7802C9BlYPvbV0GD6SxvM9xC8pPgEX1rl+Rjo+WBToPFBjJD5zlts9NfEiPYYd7L2FAKe9ygYbvtF0TD2vBDI+9y04vjwDAj1lNSg+CPLVvV284T1OfHc8mW0xPpgBqb0EryE+V4oavaS5Uz6Pj9S9/BjBvYxeLr7KzWg+3jlAvPuNIr2dQpC9KoZCvhsrCr1TMVy92LuAPG5/mT1hrf49AFHnPAgpR767v2c+xPdXvtmPNb65cty9gNMBPDS4Hr4fHuQ9zGU2vE7pIz4jZ0y+dwc0PuGPc7wRpoi9k6AEPEM4i726y+e90VBtPCHkNL7Ycsg9V8MlPWVk3j3E+zu9LEgaOg464T2gYyW+ZmZUveXrFj7Ufi+8unxxPuDlb7192Py9XuslPLEJDD4YiSQ+ijEfviBItr2w71Y9Gr7qPXcUEb7zQQm+YInSPWbTFj6e5eu99DAVPNKwfL23x+E9xphBPlkhIb6PSpQ9Qw7BvUpROL0//ME9MHWbvVXGRj6ZB7E9iXBavU04B75B0xW+3XEovl6hD76Mq9U9vQVKPV4fxL1qhEQ+HtlqPeW0Uj7nqyW+ngoovELU5j2gWgg9UlSBvWwKXL7hk1O+Nt3APfAKO70EDsS95S5hvt8hlDz46F29Mq1evFRxZTzyRhU+JOqRPZa2e74chHA9RhH5PTLEmz2JNDi74vZVvkv/OD62maK9LAbGO7W/OD7tPgG9uA91PXvMoD09SKK8OQUjPhVAIb5Lbo28n15XvqMtGD5Vd8Y9oG0iPh/tj73kq3Q+YAQYvuA8FT6BvhE82paAPuRAib1uKtk8AiXeO6ukJ74ncX68/gcaPsjsprz8nK+7J5jNPfpjRr4/GII8Yh+DvVGzOD3YdhG9aOtouyRbBr2wPDq9UqTXvRi+Vj6IN709JLu/vEyhgr7j0IU+dy0QvnMvDzyVeI28EQcavk37Hr6qr4Y++wofPZpHvz308qk8nf52Pd6/pL2wws29kGb/vbNRHb52VeG9AWeovWDNBz1frOG9TmUHvS19Lj4rf/G96XBGPQ9hJLzMICA+/s6Nu4GfKr6rAhG+DFr2PY1uSL440mI9oz0ePpHEbb6GCYo8h/UBPhShXL1VCrO96XLhvetUFT6TmaQ9hNkAvgkGl71eJM08Jas/PoSAmL039b29G8cpPiMn2j2s/DQ+omtjveVH3bzFmCI+mQ5Tvn0Rsbt4Dwg+fUjKvMhW0D22VMw9MV2PPTUOIT17x5m9m50zPR2cJj5kQbm9s6PKPZfNsjzTDmC9g7fKPGc1rby0kY89BvCsPTsRDj7X41C9oATlvZQJ2r2ChyG+HmUbPoKQBb5Ray0+oTxPvpFE4TzV4ig9EbuaPTP+Eb6LnSu7zJAnPvkKQr2dXCo+og5yvcDTFz6noEm8yHH2vdjNxrxAjrq8HlddvqQnt73ZEJS9L7ZivUEdHD4R4SK9l20OPjy/Wj77gZ69wjatvbXZMz7ACRA8fcrmvQcZAL24lYm9ta5ePqQafL31Oig+GjRgvgF51jsO6vO7hSPgvc3r+z2KQC4+PltQver03j3TgEo9PyY/PdShj71L3tm9fwjmPQ+3Ab6+Cai91MPmu3IY8z20A0K++8gxPZB3NLzylRs9Ax9bvsojGL6m+ky8gys9vv6af71nurc9GkvUPfL9/r3R7fu92MVUvEFcTb4+KsG8qkbrvWMZ1T1cteq9it4YPHhOtDshXGU979odPlN4D76TPwm+8XwFPbDW9DyIDSA+yUyOPdSJFb4Ebga+RaADPnrt/7s8wiS+NAUSvkEGGDpDmHa9I7/gPTB5JL2AcQK9uelMvsID9D1eaCw+4bC5vD6aZL3C4jG+K48fPj2CoT2mkEo+OZSPvbkWHL6kKCc9aGYAvrhyAj5Z30A+PYvxOuI98LxtPQ0+YVoaPuXKCj54YGw+Dke3PR+u+D2eVr299x8JvkQl37spnpY9o8OJPaeI0LxtgBy+yN2CvdKaXD4Hehu9VHHnvDGnLD6GO7G9uQgXPvUzkL1Gpxg9PgAEPrM6Kz75yvg97fKgvZ7BVj6jahk+NR6nvXDkpr366E8769C/PAeOJr6TVXI9Z35nPjT7AT5dJFU+2RABvq+xk7y5lwU+xqgEPjO1Fr66aVS9mbPYvVs2kDwkmhc9luOkveeiET6YQyG+hjgWPotN6b1/L7Q9vEA+PZsLJT4RuxU+CsVKPggr9T0xcgs+qTYvPqH/XL0QAok9B557varfFz6//2c9TE8JPUoHfL5hvji979I7PnsYlr0wSyK+aJinvbaYkL30JCk+rVbwvLBkpj3DbBA+/2t6vYUP9L0i3LK9q3oJPv1r/r1OeDs9copfvSScYL1KTU49+kWJvR7C4L1rOmO+Y9uDvMOK9r2tY5W91ySRvbuKkT3NQNS9F0fyvDYjBT3aD9u9TfGXOiExE76ScTw+Mi4MPm7tPD5YF+G9nE2WvdzFFD4K8lc6cJ9Dvp/qM7uciVe+vM8BvsZY0z2iFxm+aOgAPaspGb5/8Zm99RRlvbX5YT5MsiQ+xB/jPEUq2jvuaCC+yhExvWKRkz34pDG+LBxkPTrcqj1gRd49HVVyPp3Jwz2ayhE++h4PPpyrCrwHMKK99rLovGXfkT12V+E9M4WWvUx/zLwxljK+11w1vRYbIL7Qugy+HnmMPXRC4T1gh4c9LWkHvh/sZj7A3z+8R+tWvpLgcj76yX+9NMfTvVAaK7118iw94ZFlvq9jD71AmiO+J/FmvjAyUb3LH/y9SdrOvYo1Bb14nSY98miLvbLUGL3r4A8+63SZPQJSML7RLMy9ykbJPGMOBT5StsK8tDvyPS6Hh72zhoO93g8du6Rp9jwE7MW9zAo9PueOD74jBxs+0IqjvJnSJD7QZNK9nf4QvniL7T2r2sw9PUcYvnaQDj6YQr29Q/g7vJ8lET4UMJQ95VW5vAAluj1fyQ+9Up6dvUFwOz4gIyy++y2FvQL9Oz5pabY9XGk1POOLhr0bqLO9xLxOvmqcFD5d8Cq+yWHUPb3e3L3JpPW9k2IpPq7CGT7GW++9zqgPvvHSPbz1X8S9MKoivghlUD53x6a8OSATPvQZOr7iozm+bYs6vfyzg72QQVI+5UggvpEcTLxrNw2+scKuvBOsRTuEt108Y8M9vlT+Ij26xpW9k/jRPWrPFT3CXAK+p1RGvrGTNL4AN629fCzdOyrjl7yc/qA93UmMvV90Qz6UeXG86HU7vZluJT5NLzY8d6IpPolQFr6SNw897DCiPYdOEb4VIU4+0gckO6kMSrwttO27tfYSvo5wK742MyG+rnIpPmc3HD5tPvc9+Q1SPHpSwjzceOW9uzWIPfe50b0Xaa87HWcpPc/vqTlOAZM931T7vVfvVbzITxo+NTyIvdl13Twilhe++aPDvQY21zxEskM+10Q6vm9i3L2cJD4+Tm4Hvjqvyz0HKXG9lCwNvoYDxzwuELG8fHIlPkAyAT0tGiM+mgeIvgZtDbzEweU9ggvxPSEaIb60U5k897S9POIz8DwY9Rg+KhMBvjcESD7WVr881mPVvVQ3Rz0MRbY9Ra8RvoTLy7yVg448/XH8PFPupD18PT694XSxvEmxnT3FJc08V+INPB3az72wyy8+x9jBvRqbMz0IdLi8u0QNPsu6aj2jSk4+bRePvPXiWj5r/k6+5kLIvXhhGr63uxY+vKnKPXZ6Hb6efXM9GSQOvnKCEz6MXUQ9Lj4LvjSyo70wbUq9ccQRvltCgb2ce0o+V5o3vRsPJj215/08TwkuPmJkSzw4Eac9oUvYPeug6r3SIPk9MHUfPiYDDb73nBy+l/IDvjbqLr25Xzk+B3nDPbcyI74Zvkq+aglYuzfYP7zVfh+9VSQUPoJnxD00xeM9IJUGPmRqAbxBgpu9RIr9PRK0nb3XBAo7FJElPuT0Ez0jeg++wbGpPZjyADuv2Ao+Gw0iPvyJXT5OUSM+0Wt9PbivgT2W2Ce+6nA5PYup+j3UbjY+AV0aPqfmOz3Tdv+6DiEEPt+uSr08syQ+33gsPlxFXT4YmxM93J4Rvo8kWT0OMM+9AGA0vGX7pjwlLhY+H239vcJluj2E8Yy9fFOXPaEOhjyoojG9EDogPrYLI75QVRQ9hYI8voEDp71ZrhA+rK3QvSyn3z2PgTe+cdkXO8AdFT7nyzc9FC8qPtjxCj4hrVS90GEjvi5HQT60GQU9aKU+vrQzuD0EKBG+9oQHPq0gvz0UUaO9GMCSPQbMPb2Gqcu9tuQ5PrqGyj3qOi2+3DMWPYpfAL7GWGu9U4oAvv33Rj5Q9QM9ClAuvsBtTb3kb+A8mlo7Pk4ehTyFcg49kvj0vOMBzL1SPBS+DLAjvoxNiL2S2rY9l83BvVHkyrs6bAE+ovwDvnPvBDzk1vi7/hFUvp14pT2xT/Q9S/IGPYBs273byRq+Ac4evugcCT70TY89q5egPAml4L0L5GM8PWQ/vuryTz5pmxi8xqRsvDyrHL7h+ks+bZlCPkwTMb5SZh889oSGPUmVTz6uTnI+v3o5vmCqsD1yyNW80Ed5Pcart72PpKO9QY+yvb9Z3r083649rmoHPrI6+j2Xfzi+heVEvAa9gb33HYa9XTEFPqnZqz0ikLM9sJyYvE49071MElG9vo0GPQK+Ij4cN0w9paMRPoCBVb0WYDS+IvGZuxMZRb0yUck8X7CLPJIzEb2VxRK+NkoLvmexsrwFwX+8RvOwPXROCL7PZ9U9gftavUoZFr0boRG+1h1iPfVqdj38p1C+m0z/PMDVjj11fCK+2+tVvXI3Mj7xbA8+6L87vlEv4D1z/sM9h4CRPFBEVD7mDFs+gLZAvv1tiT2ruR+94t42vs1TbD78o+k9y0skPmsdMr0JD8g9YNtnPjrIJ76+ir+9e533PHkLGj0ji6S9/OS+PUBNgrzrY9C9gCURvMrJzr0lIMY7ovP5PQ9z2z3Qcc097C0wPhGvLb42stO9Xn+ZvNcs3D2pZqg9nxlsvQFInD2V/6u9jssOvaYi9r3sKes9R8tovVaHCT4Zuyw92kYJvaBqLz7YeaU89jAKvJihIj4Bl4e93Wf/vaHdBr5MmpW9DuoMvuD+sry4lMs7rdsaPtAFM76J0xm+8qUpPqnL773aA+u9BKgDvshWtr3IrmM+sxbju1nDsz0LPdq9Bv8SPjVIEz7omjo+ua6FPQhMm72zNQA+2ugXvqhPg72C/Kq6p+sCPSvtUr4+h4W9TPKxvGT9gTyz2k29U5oovuM8tD1jWDc+EeAiPYCuJD0rUEw+TZ7PvEiTHz5ri04+KeMiPm3IGr7WXs29y0nbPcE2qL0+syC+Fe44vnCcxr25ot89+ROwvaYqLL0Ci2i92REnvlJs0Dw2v2m9wZ3XvUrLIj6HMnO8D6BNPrsO8D1F/yi7IQPtvcsuDT5JZsE6P5cLvaDMj72S6+O9sqyVufo47j01ykE+gyvXPGkn/b1Ao8O9n6HLvOnOFz2ux8U9IQchvtnXGD4NBoC8goadOyQOLb4fXly8B9iaPAniAD60+cA93lU1PhZ3cr3aZaG7m5TEPViK670SI/49DRq7PcccBD62JSg+OB0xPhZklL3jRIu9eA2IvajyU75Oaha+rEVkO9Rniz26wya+OT+kPWQpVr7L7sW9vp8APmukY72ley2+R74kvoRbir3w4UI+JVDSvV43I77fYAm+k9N3Pj2O2D3xIBi+bT2UvaphST7lpAU+iUbLvXxR3D2/1+C8WRSrvWQHBb5BFMU9nigdviKDx71iEQI+Na32O7tzG75Lzwc+dlE9Pmo20T3ncoG+wCMFPr+vIb5PO1k9WG8uPr37S72quhY+PQG8vRrMEr5MlvW9y7IJviTmYz2ZQ0K9P8apvXPEwD2r69w9sYBNvbxaQTzKh9E90XcRvuU1Qz6eTvI9rjVCvubL570QZVm91BM